// model.h — generato da MFCC_Arduino_Training.ipynb
// Copiare nella stessa cartella dello sketch Arduino.
#pragma once
#include <stdint.h>

// ── Parametri MFCC (identici all'Arduino sketch) ──────────────────────────────
#define SAMPLE_RATE        16000
#define FRAME_LEN          256
#define HOP_LEN            128
#define N_MEL              26
#define N_MFCC             13
#define MEL_LOW_HZ         300.0f
#define MEL_HIGH_HZ        8000.0f
#define PRE_EMPHASIS       0.97f
#define CLIP_SAMPLES       16000

// ── Normalizzazione per-coefficiente (array di N_MFCC=13 valori) ──────────────
// Usare: norm = (mfcc[c][t] - NORM_MEAN[c]) / NORM_STD[c]
static const float NORM_MEAN[N_MFCC] = { -368.29504395f, -16.52925682f, -5.02672577f, 2.42987561f, 0.14971650f, -1.29465055f, 0.22610910f, -0.48060077f, 0.08956818f, -0.07394481f, -0.41883051f, 0.12972699f, -0.51975548f };
static const float NORM_STD [N_MFCC] = { 108.66484070f, 16.89908218f, 10.43169975f, 8.68568802f, 4.92043400f, 5.13063335f, 4.07576513f, 3.89976954f, 3.50818682f, 3.30715728f, 3.25423527f, 2.95245123f, 2.72120309f  };

// ── Quantizzazione TFLite INT8 ────────────────────────────────────────────────
#define INPUT_SCALE        0.05889991f
#define INPUT_ZERO_POINT   -1
#define OUTPUT_SCALE       0.00390625f
#define OUTPUT_ZERO_POINT  -128

// ── Etichette classi ──────────────────────────────────────────────────────────
#define N_CLASSES          4
static const char* const CLASS_LABELS[] = { "clap", "tap", "snap", "silence" };

// ── Modello TFLite (xxd) ──────────────────────────────────────────────────────
const unsigned char model[] = {
  0x1c, 0x00, 0x00, 0x00, 0x54, 0x46, 0x4c, 0x33, 0x14, 0x00, 0x20, 0x00,
  0x1c, 0x00, 0x18, 0x00, 0x14, 0x00, 0x10, 0x00, 0x0c, 0x00, 0x00, 0x00,
  0x08, 0x00, 0x04, 0x00, 0x14, 0x00, 0x00, 0x00, 0x1c, 0x00, 0x00, 0x00,
  0x98, 0x00, 0x00, 0x00, 0x18, 0x01, 0x00, 0x00, 0x10, 0x20, 0x00, 0x00,
  0x20, 0x20, 0x00, 0x00, 0xe0, 0x38, 0x00, 0x00, 0x03, 0x00, 0x00, 0x00,
  0x01, 0x00, 0x00, 0x00, 0x10, 0x00, 0x00, 0x00, 0x00, 0x00, 0x0a, 0x00,
  0x10, 0x00, 0x0c, 0x00, 0x08, 0x00, 0x04, 0x00, 0x0a, 0x00, 0x00, 0x00,
  0x0c, 0x00, 0x00, 0x00, 0x1c, 0x00, 0x00, 0x00, 0x3c, 0x00, 0x00, 0x00,
  0x0f, 0x00, 0x00, 0x00, 0x73, 0x65, 0x72, 0x76, 0x69, 0x6e, 0x67, 0x5f,
  0x64, 0x65, 0x66, 0x61, 0x75, 0x6c, 0x74, 0x00, 0x01, 0x00, 0x00, 0x00,
  0x04, 0x00, 0x00, 0x00, 0x68, 0xff, 0xff, 0xff, 0x11, 0x00, 0x00, 0x00,
  0x04, 0x00, 0x00, 0x00, 0x08, 0x00, 0x00, 0x00, 0x6f, 0x75, 0x74, 0x70,
  0x75, 0x74, 0x5f, 0x30, 0x00, 0x00, 0x00, 0x00, 0x01, 0x00, 0x00, 0x00,
  0x04, 0x00, 0x00, 0x00, 0xd6, 0xdf, 0xff, 0xff, 0x04, 0x00, 0x00, 0x00,
  0x0c, 0x00, 0x00, 0x00, 0x6b, 0x65, 0x72, 0x61, 0x73, 0x5f, 0x74, 0x65,
  0x6e, 0x73, 0x6f, 0x72, 0x00, 0x00, 0x00, 0x00, 0x03, 0x00, 0x00, 0x00,
  0x5c, 0x00, 0x00, 0x00, 0x2c, 0x00, 0x00, 0x00, 0x04, 0x00, 0x00, 0x00,
  0xb8, 0xff, 0xff, 0xff, 0x15, 0x00, 0x00, 0x00, 0x04, 0x00, 0x00, 0x00,
  0x13, 0x00, 0x00, 0x00, 0x43, 0x4f, 0x4e, 0x56, 0x45, 0x52, 0x53, 0x49,
  0x4f, 0x4e, 0x5f, 0x4d, 0x45, 0x54, 0x41, 0x44, 0x41, 0x54, 0x41, 0x00,
  0xdc, 0xff, 0xff, 0xff, 0x14, 0x00, 0x00, 0x00, 0x04, 0x00, 0x00, 0x00,
  0x13, 0x00, 0x00, 0x00, 0x6d, 0x69, 0x6e, 0x5f, 0x72, 0x75, 0x6e, 0x74,
  0x69, 0x6d, 0x65, 0x5f, 0x76, 0x65, 0x72, 0x73, 0x69, 0x6f, 0x6e, 0x00,
  0x08, 0x00, 0x0c, 0x00, 0x08, 0x00, 0x04, 0x00, 0x08, 0x00, 0x00, 0x00,
  0x13, 0x00, 0x00, 0x00, 0x04, 0x00, 0x00, 0x00, 0x13, 0x00, 0x00, 0x00,
  0x6d, 0x69, 0x6e, 0x5f, 0x72, 0x75, 0x6e, 0x74, 0x69, 0x6d, 0x65, 0x5f,
  0x76, 0x65, 0x72, 0x73, 0x69, 0x6f, 0x6e, 0x00, 0x16, 0x00, 0x00, 0x00,
  0xf4, 0x1e, 0x00, 0x00, 0xec, 0x1e, 0x00, 0x00, 0xd4, 0x1e, 0x00, 0x00,
  0xb4, 0x1e, 0x00, 0x00, 0xa4, 0x1d, 0x00, 0x00, 0x94, 0x1c, 0x00, 0x00,
  0x84, 0x14, 0x00, 0x00, 0xf4, 0x13, 0x00, 0x00, 0xe4, 0x01, 0x00, 0x00,
  0x94, 0x01, 0x00, 0x00, 0xf4, 0x00, 0x00, 0x00, 0xec, 0x00, 0x00, 0x00,
  0xe4, 0x00, 0x00, 0x00, 0xdc, 0x00, 0x00, 0x00, 0xd4, 0x00, 0x00, 0x00,
  0xcc, 0x00, 0x00, 0x00, 0xc4, 0x00, 0x00, 0x00, 0xbc, 0x00, 0x00, 0x00,
  0xb4, 0x00, 0x00, 0x00, 0x94, 0x00, 0x00, 0x00, 0x74, 0x00, 0x00, 0x00,
  0x04, 0x00, 0x00, 0x00, 0xd2, 0xe0, 0xff, 0xff, 0x04, 0x00, 0x00, 0x00,
  0x60, 0x00, 0x00, 0x00, 0x0c, 0x00, 0x00, 0x00, 0x08, 0x00, 0x0e, 0x00,
  0x08, 0x00, 0x04, 0x00, 0x08, 0x00, 0x00, 0x00, 0x10, 0x00, 0x00, 0x00,
  0x28, 0x00, 0x00, 0x00, 0x00, 0x00, 0x06, 0x00, 0x08, 0x00, 0x04, 0x00,
  0x06, 0x00, 0x00, 0x00, 0x04, 0x00, 0x00, 0x00, 0x01, 0x00, 0x00, 0x00,
  0xeb, 0x03, 0x00, 0x00, 0x0c, 0x00, 0x18, 0x00, 0x14, 0x00, 0x10, 0x00,
  0x0c, 0x00, 0x04, 0x00, 0x0c, 0x00, 0x00, 0x00, 0xfa, 0x7f, 0xa2, 0x6a,
  0xce, 0x9e, 0x73, 0x6b, 0x02, 0x00, 0x00, 0x00, 0x02, 0x00, 0x00, 0x00,
  0x04, 0x00, 0x00, 0x00, 0x06, 0x00, 0x00, 0x00, 0x32, 0x2e, 0x31, 0x39,
  0x2e, 0x30, 0x00, 0x00, 0x3e, 0xe1, 0xff, 0xff, 0x04, 0x00, 0x00, 0x00,
  0x10, 0x00, 0x00, 0x00, 0x00, 0x00, 0x00, 0x00, 0x00, 0x00, 0x00, 0x00,
  0x00, 0x00, 0x00, 0x00, 0x00, 0x00, 0x00, 0x00, 0x5a, 0xe1, 0xff, 0xff,
  0x04, 0x00, 0x00, 0x00, 0x10, 0x00, 0x00, 0x00, 0x31, 0x2e, 0x31, 0x34,
  0x2e, 0x30, 0x00, 0x00, 0x00, 0x00, 0x00, 0x00, 0x00, 0x00, 0x00, 0x00,
  0x04, 0xca, 0xff, 0xff, 0x08, 0xca, 0xff, 0xff, 0x0c, 0xca, 0xff, 0xff,
  0x10, 0xca, 0xff, 0xff, 0x14, 0xca, 0xff, 0xff, 0x18, 0xca, 0xff, 0xff,
  0x1c, 0xca, 0xff, 0xff, 0x20, 0xca, 0xff, 0xff, 0x96, 0xe1, 0xff, 0xff,
  0x04, 0x00, 0x00, 0x00, 0x90, 0x00, 0x00, 0x00, 0xc9, 0x81, 0x00, 0x9c,
  0xbd, 0xc6, 0x27, 0x20, 0x07, 0xc7, 0x05, 0xfc, 0x81, 0x4b, 0xa2, 0x0f,
  0x29, 0xb3, 0x7a, 0x62, 0xeb, 0x53, 0x17, 0x81, 0xcc, 0xa4, 0x8b, 0x8b,
  0x12, 0xf7, 0x65, 0x7f, 0x32, 0xfc, 0x0e, 0xd6, 0x7c, 0x7f, 0x4d, 0x6c,
  0xbd, 0xf9, 0xa1, 0xce, 0x91, 0x6f, 0x64, 0x39, 0x1f, 0x52, 0x69, 0x4c,
  0x7f, 0x65, 0x94, 0x22, 0x7a, 0xf7, 0xda, 0xed, 0x81, 0xaa, 0x07, 0xa1,
  0xf5, 0x1a, 0xb9, 0x81, 0xf9, 0x13, 0x0b, 0x32, 0xea, 0x72, 0x91, 0x81,
  0x0b, 0x51, 0x13, 0x2c, 0x8d, 0x2a, 0xb0, 0x12, 0xaf, 0x2d, 0x9b, 0x02,
  0x81, 0x0c, 0xb4, 0xb6, 0xb5, 0xdc, 0xdb, 0xef, 0x81, 0xb6, 0xaf, 0x31,
  0xd7, 0x81, 0x9d, 0xc6, 0x0e, 0x0d, 0xfd, 0xe3, 0xb8, 0xd7, 0xca, 0xa9,
  0xdf, 0xc5, 0x81, 0x9a, 0xbc, 0xfb, 0xde, 0xc8, 0x00, 0xfd, 0x20, 0x37,
  0x7f, 0x23, 0xd3, 0x81, 0xd1, 0xc0, 0xcd, 0xdb, 0x48, 0x3e, 0x55, 0x9e,
  0xb1, 0xb2, 0x75, 0x02, 0x7f, 0x3f, 0xd9, 0x36, 0x32, 0xe2, 0xff, 0xff,
  0x04, 0x00, 0x00, 0x00, 0x40, 0x00, 0x00, 0x00, 0xc7, 0xfa, 0xff, 0xff,
  0xf1, 0xfb, 0xff, 0xff, 0xf1, 0xfa, 0xff, 0xff, 0x30, 0xf8, 0xff, 0xff,
  0xd6, 0xfb, 0xff, 0xff, 0x67, 0xfa, 0xff, 0xff, 0x65, 0xfb, 0xff, 0xff,
  0x88, 0xfa, 0xff, 0xff, 0xe2, 0xfc, 0xff, 0xff, 0x7f, 0xfc, 0xff, 0xff,
  0xd5, 0xf9, 0xff, 0xff, 0xe9, 0xfc, 0xff, 0xff, 0xb9, 0xfa, 0xff, 0xff,
  0x12, 0xfe, 0xff, 0xff, 0x48, 0xfa, 0xff, 0xff, 0xaa, 0xf8, 0xff, 0xff,
  0x7e, 0xe2, 0xff, 0xff, 0x04, 0x00, 0x00, 0x00, 0x00, 0x12, 0x00, 0x00,
  0x0a, 0x0d, 0xe2, 0x43, 0xdc, 0xd5, 0xec, 0xfb, 0x28, 0x1d, 0x06, 0xe9,
  0xbb, 0xe6, 0x2f, 0x06, 0x06, 0x05, 0xd1, 0x27, 0xeb, 0xf3, 0xef, 0xe9,
  0x09, 0x1b, 0x0b, 0xe7, 0xee, 0x06, 0x1b, 0x0c, 0x15, 0x00, 0xdc, 0x51,
  0xde, 0xe5, 0x20, 0xfa, 0x47, 0x13, 0xf3, 0x19, 0xe5, 0xf7, 0x4e, 0x4f,
  0xdc, 0xec, 0xf9, 0xdf, 0x07, 0x15, 0x2d, 0x07, 0x10, 0x1c, 0xeb, 0x0b,
  0xbe, 0x11, 0x31, 0xec, 0x02, 0xe4, 0xf7, 0x12, 0x05, 0xf9, 0x1d, 0x16,
  0x06, 0x24, 0xcd, 0x20, 0xed, 0x34, 0x41, 0x15, 0x0a, 0xca, 0x20, 0xda,
  0xff, 0x33, 0x35, 0x23, 0x47, 0x03, 0xdd, 0xf5, 0xd9, 0x2e, 0x3c, 0x14,
  0xf7, 0xd4, 0x1b, 0xdc, 0x1f, 0xed, 0x3f, 0xfa, 0xe8, 0x10, 0xf4, 0x04,
  0x19, 0xe8, 0x07, 0xb5, 0xd8, 0x02, 0xec, 0xcc, 0x15, 0x05, 0x36, 0xdb,
  0x33, 0x3c, 0xed, 0x0c, 0xd5, 0xdb, 0x00, 0xd8, 0xfb, 0xd1, 0x4f, 0xd2,
  0x26, 0xf5, 0x7f, 0xf7, 0x41, 0x40, 0x14, 0x3f, 0x0c, 0xfd, 0x21, 0xd7,
  0x65, 0x07, 0x2c, 0xd5, 0x12, 0xad, 0xe7, 0x48, 0xdf, 0xe7, 0xf0, 0x1f,
  0xda, 0x4a, 0x3a, 0x29, 0xff, 0x1a, 0xc1, 0xf5, 0xf8, 0x8c, 0xc6, 0x54,
  0xa0, 0xf3, 0x19, 0x09, 0xdf, 0x21, 0x43, 0xc2, 0xd9, 0xb8, 0xcf, 0x08,
  0xe4, 0x11, 0xee, 0x42, 0xe2, 0x21, 0xf2, 0x1b, 0xf0, 0x6f, 0x05, 0x59,
  0x1d, 0xcb, 0xa5, 0xa0, 0xf7, 0x20, 0xa1, 0xde, 0xb6, 0x00, 0xf4, 0xcb,
  0xff, 0xbe, 0xc7, 0x81, 0xc2, 0x90, 0xb0, 0xb5, 0xd7, 0xd6, 0x9b, 0xe4,
  0xc2, 0xf5, 0xa2, 0x0e, 0x24, 0xbf, 0xbb, 0x84, 0x01, 0x90, 0xde, 0x8d,
  0xa1, 0xb9, 0xd2, 0xdb, 0x99, 0xa4, 0xa8, 0xa2, 0xe9, 0xda, 0xbf, 0x81,
  0x1a, 0xdf, 0xc5, 0x3e, 0xf6, 0x0b, 0xc8, 0xe2, 0xb5, 0xbb, 0xd8, 0xee,
  0xb8, 0x30, 0x03, 0x25, 0x0a, 0xc8, 0xb1, 0xdf, 0xe6, 0x50, 0xc4, 0xd9,
  0xc6, 0xf6, 0xc0, 0x10, 0xbe, 0x1c, 0x35, 0xfe, 0xd4, 0xb6, 0x95, 0x10,
  0x04, 0x10, 0xdb, 0x1b, 0xc3, 0xce, 0x96, 0xd9, 0xc8, 0x5b, 0x06, 0xb5,
  0x32, 0x44, 0xc6, 0x1a, 0xdd, 0xc9, 0xed, 0xe5, 0x17, 0xc0, 0xf7, 0x36,
  0xa8, 0xe3, 0x03, 0x3f, 0x46, 0x0b, 0xb4, 0x4d, 0xd6, 0xb9, 0xd5, 0x26,
  0xec, 0xe4, 0x0f, 0x36, 0x8f, 0xed, 0x49, 0x31, 0x1b, 0x47, 0xc7, 0xfd,
  0xce, 0xad, 0xc0, 0xed, 0xe1, 0xb5, 0x00, 0xea, 0x9c, 0x08, 0x4a, 0x43,
  0xf9, 0x68, 0xe7, 0xf0, 0xc8, 0xd1, 0x0f, 0x2f, 0x19, 0x21, 0xdc, 0x03,
  0xdd, 0xee, 0xf4, 0x20, 0x43, 0x7f, 0x06, 0x13, 0xf5, 0xaf, 0xe2, 0x10,
  0x29, 0xd4, 0xf5, 0x24, 0xfe, 0xd0, 0x10, 0x0b, 0x2e, 0x5e, 0xea, 0xe5,
  0xe8, 0x95, 0xfb, 0x27, 0xf8, 0x3e, 0x11, 0x1b, 0xce, 0xcc, 0x17, 0xf9,
  0xf5, 0x26, 0xed, 0x2c, 0x1c, 0x10, 0x21, 0x2e, 0x26, 0xee, 0x1b, 0x37,
  0xf9, 0xf2, 0x24, 0x30, 0x18, 0x28, 0x12, 0x2d, 0x05, 0x1e, 0xf0, 0x02,
  0xf5, 0xe3, 0xfb, 0x31, 0xf1, 0x13, 0x38, 0x29, 0x22, 0x1b, 0x0d, 0x34,
  0x1f, 0x1d, 0xe1, 0x18, 0x08, 0xdf, 0x2f, 0x2e, 0xda, 0x0c, 0x25, 0xf9,
  0x09, 0x01, 0xc7, 0x2b, 0xc5, 0x4b, 0xec, 0xea, 0x02, 0xf1, 0x1a, 0xf3,
  0xe8, 0x21, 0xd2, 0x14, 0xd9, 0xcf, 0xa6, 0x16, 0xa4, 0x52, 0xff, 0xed,
  0x06, 0xfa, 0xf8, 0x0c, 0xf8, 0x26, 0x09, 0x39, 0xf8, 0xe2, 0x9d, 0x06,
  0xb2, 0x4f, 0xcd, 0xef, 0x0e, 0x07, 0xfe, 0x05, 0xdd, 0x0b, 0xf2, 0x0f,
  0xfc, 0xdf, 0xb8, 0xc8, 0xb8, 0x7f, 0x06, 0x0a, 0x01, 0x32, 0xda, 0x17,
  0x29, 0x12, 0x16, 0x02, 0x16, 0x08, 0xc0, 0xe7, 0x00, 0x12, 0xe5, 0x02,
  0x24, 0xfd, 0xf6, 0xfc, 0x3a, 0x39, 0x1e, 0x04, 0xf2, 0xfb, 0xe1, 0x19,
  0xbf, 0x74, 0xec, 0xe5, 0x13, 0x31, 0x39, 0xe1, 0x1a, 0x2f, 0x0b, 0x00,
  0xd1, 0xf4, 0x18, 0xd9, 0xd3, 0x01, 0x24, 0xd2, 0x1f, 0xff, 0x2c, 0x35,
  0x26, 0xb1, 0xf5, 0xc6, 0xb8, 0x00, 0xd6, 0xaf, 0x15, 0xc6, 0x0b, 0x04,
  0xec, 0x02, 0xe8, 0x18, 0x01, 0xdd, 0xa5, 0x9e, 0x2c, 0xde, 0x4d, 0xae,
  0x08, 0xee, 0x3d, 0x11, 0x07, 0x1a, 0xfe, 0xdc, 0x2b, 0xcb, 0xd7, 0xab,
  0xcc, 0xf3, 0xfc, 0xbd, 0xd8, 0x45, 0x06, 0xe3, 0xe3, 0x36, 0xc5, 0xe6,
  0x00, 0x06, 0x33, 0x19, 0x11, 0xf9, 0xb5, 0xe3, 0xd8, 0xfc, 0x4a, 0xf8,
  0x2c, 0x29, 0xf5, 0xe0, 0x3b, 0x00, 0x1e, 0xe2, 0x14, 0x1a, 0xb2, 0xdc,
  0xe1, 0xff, 0xec, 0x1a, 0xd1, 0x16, 0xc9, 0x1f, 0x52, 0x0e, 0x11, 0xeb,
  0xf1, 0xc0, 0x5e, 0x3b, 0x16, 0xff, 0x09, 0xf1, 0x00, 0xca, 0x05, 0xf4,
  0x57, 0x2b, 0xae, 0x0d, 0xb6, 0xcb, 0x60, 0x23, 0x14, 0x12, 0xfa, 0xd1,
  0xfd, 0xd7, 0x0e, 0xdf, 0x47, 0x0b, 0x81, 0x09, 0xa2, 0x0d, 0x1c, 0x67,
  0x6d, 0xe4, 0xe8, 0xb2, 0xef, 0xc8, 0x46, 0xdb, 0x4e, 0x1e, 0x9b, 0x23,
  0x0c, 0x11, 0x06, 0xff, 0xd3, 0x0a, 0xc7, 0xb0, 0xbe, 0xf6, 0x3d, 0xd1,
  0x2a, 0xe7, 0xfd, 0x1e, 0x17, 0xf5, 0xbc, 0x1a, 0xf6, 0xf0, 0x01, 0x90,
  0xcc, 0x0e, 0x41, 0xe4, 0x4a, 0xe0, 0xbd, 0x4a, 0xe0, 0xe8, 0xd2, 0xfb,
  0xd3, 0x61, 0xbb, 0xcf, 0xea, 0xd9, 0x22, 0x24, 0x33, 0xca, 0xa5, 0x03,
  0xe1, 0x0d, 0xd1, 0xb4, 0xd9, 0xde, 0x43, 0x1a, 0x09, 0xce, 0x23, 0x05,
  0x11, 0xc2, 0xd4, 0xce, 0xf4, 0x14, 0xfe, 0xe2, 0xe1, 0xd4, 0xea, 0x08,
  0x0f, 0x1d, 0xd7, 0x39, 0xfe, 0xb8, 0x08, 0xe1, 0x0d, 0x2f, 0xff, 0xba,
  0xc2, 0xb0, 0x2a, 0x3e, 0x76, 0x4a, 0x06, 0x1a, 0x15, 0xca, 0x42, 0xcb,
  0xe9, 0x14, 0xf9, 0x3b, 0x21, 0x35, 0x1d, 0xd0, 0x67, 0x01, 0xd1, 0xee,
  0x09, 0xfe, 0x0d, 0x14, 0xf4, 0x0f, 0x69, 0x29, 0x04, 0x2d, 0x4a, 0xd3,
  0xea, 0x00, 0x10, 0x1c, 0x4b, 0xe2, 0x16, 0x0c, 0x28, 0x29, 0x31, 0x19,
  0xea, 0x32, 0x28, 0xf0, 0x21, 0x2b, 0xfb, 0xfe, 0xed, 0x1b, 0xf2, 0xe0,
  0x02, 0x7f, 0x6f, 0x2f, 0xfa, 0x1a, 0x12, 0xdc, 0x00, 0xcd, 0xc1, 0x23,
  0xb7, 0x07, 0x27, 0xeb, 0x50, 0x0c, 0x3b, 0xef, 0x32, 0xf4, 0x38, 0x57,
  0x18, 0x0a, 0x2a, 0x32, 0xef, 0x10, 0x35, 0x3d, 0x77, 0x5e, 0x17, 0x1c,
  0x22, 0xfc, 0x01, 0x08, 0x3f, 0x02, 0xe5, 0xff, 0x4b, 0x1b, 0x16, 0xf5,
  0x1d, 0x31, 0xfe, 0xdb, 0x27, 0xfd, 0x00, 0x47, 0xf6, 0x02, 0xf1, 0x3f,
  0x4e, 0x29, 0xde, 0xd7, 0x35, 0x4f, 0xf6, 0xdf, 0x3c, 0xfc, 0xe5, 0x38,
  0x1d, 0x22, 0x36, 0x05, 0x08, 0x3e, 0x2a, 0xe2, 0xff, 0x0f, 0xfe, 0xcb,
  0x1a, 0xe1, 0xf9, 0x29, 0x36, 0xd7, 0x1f, 0x1e, 0x4a, 0x0a, 0xd5, 0x0f,
  0xb2, 0x57, 0x36, 0x7f, 0x44, 0x17, 0x36, 0x0b, 0xda, 0xcd, 0x0e, 0xa8,
  0xe1, 0xc1, 0xb0, 0x3a, 0x97, 0x3d, 0x47, 0x17, 0x31, 0x45, 0xed, 0x1b,
  0xd5, 0xe2, 0x1f, 0xf9, 0xe5, 0xe6, 0x91, 0x36, 0x9d, 0xe1, 0x24, 0x73,
  0x4a, 0x1b, 0xfa, 0x37, 0x04, 0xe7, 0x16, 0xa6, 0xeb, 0x8f, 0xb8, 0x32,
  0xf2, 0x0c, 0xc6, 0x24, 0xe8, 0x5b, 0xda, 0xd4, 0xcf, 0xd5, 0x29, 0xd5,
  0x2b, 0x17, 0xe6, 0x3a, 0x05, 0xb7, 0xec, 0xff, 0xd0, 0xf0, 0x03, 0xb2,
  0x28, 0x03, 0x58, 0xed, 0x1b, 0xde, 0xb3, 0x61, 0xd7, 0xc1, 0xa3, 0xfb,
  0xd6, 0x4c, 0xc3, 0xbd, 0xef, 0xcf, 0x4e, 0x1e, 0xcd, 0xf8, 0xb1, 0x36,
  0x16, 0xdb, 0x1b, 0xcf, 0x32, 0xae, 0x32, 0xd8, 0xe4, 0x14, 0x42, 0xeb,
  0xcd, 0x19, 0xdc, 0xd3, 0xd9, 0x27, 0x2c, 0xf5, 0x41, 0xe3, 0x58, 0x42,
  0x21, 0xef, 0x4e, 0xbf, 0x47, 0x27, 0x26, 0xa2, 0xee, 0x00, 0x78, 0xfd,
  0x41, 0x8e, 0x45, 0x60, 0xf3, 0x3f, 0x04, 0x14, 0x36, 0xfa, 0x0a, 0x99,
  0xf9, 0xcd, 0x02, 0xb9, 0x32, 0x89, 0x03, 0xe6, 0xa8, 0xad, 0xe0, 0xe7,
  0xdd, 0xd7, 0xb6, 0xc2, 0x0f, 0xef, 0x24, 0x36, 0x4b, 0x95, 0xe1, 0x32,
  0xee, 0x8d, 0xa9, 0xf1, 0xa4, 0x0d, 0x22, 0x49, 0x03, 0xe4, 0x22, 0x1e,
  0x3f, 0xa7, 0xee, 0x19, 0xd9, 0xad, 0xaa, 0x97, 0xb9, 0x1c, 0x01, 0x74,
  0xea, 0xda, 0x16, 0xee, 0xf2, 0xc5, 0xd8, 0x3d, 0xbd, 0x93, 0x81, 0x95,
  0xb1, 0x4b, 0x12, 0xc1, 0x23, 0xfd, 0x14, 0xfd, 0x10, 0xc0, 0x0d, 0x5d,
  0x19, 0xde, 0xd6, 0x0c, 0xf9, 0x0b, 0x3d, 0xee, 0x1a, 0xec, 0x38, 0x09,
  0xf2, 0x08, 0xe6, 0x1a, 0x02, 0xdd, 0xac, 0xd3, 0xe4, 0xf4, 0x37, 0xe7,
  0xf3, 0xde, 0x81, 0x0a, 0xb4, 0xf6, 0xc4, 0xb0, 0xcd, 0x04, 0x06, 0xce,
  0xaa, 0xdb, 0xde, 0xd4, 0x1a, 0xb6, 0x90, 0xf6, 0x04, 0x22, 0x88, 0xe9,
  0xf3, 0xfc, 0xad, 0xd1, 0xc7, 0xa6, 0xfb, 0xe5, 0xc7, 0x0a, 0x9a, 0xf9,
  0xbb, 0x46, 0xab, 0x01, 0xb4, 0x15, 0x10, 0x0c, 0xa0, 0xaa, 0x03, 0xd5,
  0x0c, 0x07, 0xc3, 0x3d, 0xc9, 0x0a, 0xda, 0xfc, 0x16, 0x0b, 0x38, 0x51,
  0xf9, 0x49, 0xec, 0x6b, 0x24, 0xde, 0xa3, 0x09, 0xac, 0x55, 0xc6, 0x64,
  0xfd, 0x26, 0x24, 0x4d, 0xf8, 0x25, 0x10, 0x32, 0xdd, 0xd7, 0xaa, 0x25,
  0xa0, 0x40, 0xb4, 0x4f, 0x00, 0x35, 0x20, 0x42, 0xfb, 0x49, 0x3c, 0x53,
  0xf3, 0xed, 0x20, 0x19, 0x51, 0xf5, 0x06, 0x08, 0xaf, 0xe5, 0xb5, 0x00,
  0xab, 0xc2, 0x09, 0xcf, 0x09, 0x02, 0x12, 0x28, 0x51, 0xc0, 0xc9, 0x16,
  0xb7, 0xe5, 0xb9, 0x08, 0xa8, 0xcb, 0x09, 0xe2, 0x12, 0xb8, 0x2b, 0xff,
  0x2b, 0x55, 0xee, 0x35, 0xc9, 0x0c, 0xba, 0xc2, 0xd1, 0xde, 0x1a, 0xd9,
  0xc2, 0x9d, 0xdd, 0x26, 0xe9, 0x3a, 0xf6, 0x05, 0xee, 0xd0, 0xf6, 0xda,
  0x0b, 0xfd, 0x05, 0xe3, 0xd4, 0xba, 0xdc, 0xf5, 0xcf, 0xe9, 0x07, 0xef,
  0xf2, 0xfe, 0x4c, 0xc5, 0x27, 0xd6, 0x36, 0xdb, 0xe7, 0xb2, 0xe5, 0x11,
  0xed, 0xe2, 0xf8, 0x0f, 0x0a, 0x0a, 0x44, 0xb1, 0x43, 0xf4, 0x2f, 0x29,
  0xa6, 0x9b, 0x3d, 0xc4, 0x23, 0x34, 0x60, 0xba, 0x07, 0xfc, 0x36, 0x8d,
  0x3f, 0x78, 0x12, 0x02, 0x97, 0xbb, 0x21, 0xf4, 0x40, 0x38, 0xfa, 0xb8,
  0x16, 0x19, 0x02, 0xd8, 0x55, 0x5a, 0x22, 0xf5, 0xa8, 0xaf, 0x3b, 0xdc,
  0x37, 0x57, 0x10, 0xca, 0xda, 0x0e, 0x11, 0xd2, 0x45, 0x42, 0x1b, 0xda,
  0xb9, 0xb2, 0x0e, 0x81, 0xdc, 0xbf, 0x7f, 0x09, 0xeb, 0xef, 0x0c, 0xeb,
  0x69, 0xc8, 0xf3, 0x9b, 0x0d, 0xda, 0x1b, 0x90, 0xdf, 0xce, 0x5a, 0x01,
  0xe4, 0x17, 0x4d, 0xe1, 0x3c, 0xf0, 0x2a, 0xb2, 0x36, 0xf0, 0xee, 0xaa,
  0xd1, 0xd0, 0x23, 0x1d, 0xa7, 0x32, 0x05, 0x4e, 0x56, 0xbf, 0xd7, 0xbb,
  0xf3, 0xfe, 0xd3, 0x43, 0xf5, 0x35, 0xc0, 0x01, 0xf5, 0x0d, 0xdd, 0x01,
  0xea, 0xbb, 0xee, 0xf7, 0x1a, 0x01, 0xb0, 0x4f, 0xe5, 0x23, 0xcc, 0x04,
  0xf9, 0xe4, 0xf0, 0x0d, 0xf1, 0xda, 0xe7, 0x0d, 0xe4, 0xe6, 0xb5, 0x04,
  0xe8, 0x2f, 0xd8, 0x13, 0x0f, 0xed, 0x00, 0xfe, 0xd4, 0xfa, 0xfa, 0xf7,
  0x27, 0xf3, 0xfe, 0xee, 0xfb, 0x6f, 0xee, 0x24, 0xff, 0x29, 0xf0, 0x18,
  0x06, 0x1b, 0xf2, 0xf8, 0x1e, 0x20, 0xed, 0x03, 0xf4, 0x63, 0xf5, 0x2d,
  0xdd, 0x14, 0xe4, 0x3f, 0xf0, 0x1e, 0x00, 0x07, 0xfb, 0x03, 0xe3, 0xf7,
  0xf4, 0x7f, 0xe3, 0x31, 0xef, 0x2a, 0x07, 0x25, 0x17, 0x27, 0xe5, 0x1b,
  0x28, 0xf2, 0x12, 0xf2, 0x2d, 0x1a, 0x0f, 0x1b, 0x00, 0x1a, 0xf6, 0x09,
  0x00, 0xcf, 0xee, 0xcb, 0x25, 0x0d, 0xf4, 0x2d, 0x03, 0xcd, 0x14, 0x05,
  0xe6, 0x10, 0xdd, 0x20, 0xe2, 0xd2, 0xe5, 0xfc, 0x1e, 0xfb, 0x1e, 0xe4,
  0x36, 0xf4, 0x0c, 0x1d, 0xf4, 0x14, 0xdc, 0xf4, 0x0f, 0xdd, 0xd7, 0xd9,
  0xfd, 0xcd, 0x24, 0xd3, 0x57, 0x28, 0x27, 0x01, 0x38, 0x00, 0xcc, 0x12,
  0x00, 0xf1, 0xfc, 0xd5, 0xf8, 0xe3, 0x40, 0xc3, 0x1c, 0x14, 0x19, 0x0f,
  0x39, 0xf9, 0xd6, 0x18, 0x57, 0xfb, 0xfe, 0xce, 0x0d, 0xf7, 0x54, 0xca,
  0x3e, 0x18, 0x2b, 0x29, 0x36, 0xf7, 0xe4, 0xef, 0xf9, 0x01, 0xfa, 0xc0,
  0xff, 0xc1, 0x0a, 0xed, 0x1c, 0xea, 0xea, 0xe8, 0xef, 0xdc, 0xc0, 0xd1,
  0xf7, 0xed, 0x1e, 0xea, 0x0b, 0xb9, 0xf8, 0xf8, 0x2d, 0xdf, 0x2f, 0xf6,
  0x15, 0xae, 0xe7, 0xf1, 0xf7, 0x2a, 0x1f, 0xd8, 0x14, 0xe2, 0x14, 0xfe,
  0x0d, 0xd8, 0xe8, 0x0e, 0xfc, 0xe0, 0xf2, 0xd6, 0xef, 0x0b, 0xf4, 0xf2,
  0xf8, 0xe8, 0xe7, 0x59, 0xff, 0xed, 0xfd, 0xf5, 0xf0, 0xd9, 0x48, 0xf3,
  0x12, 0x4c, 0x30, 0x1d, 0x05, 0x09, 0x0b, 0x57, 0x1b, 0x29, 0xfb, 0xf4,
  0x0b, 0xf7, 0x15, 0xd2, 0x32, 0x2c, 0x19, 0x55, 0x10, 0xe1, 0x0f, 0x7b,
  0x2d, 0xfe, 0xf0, 0x0a, 0xf1, 0xdf, 0x2f, 0xc3, 0x1b, 0x7f, 0x29, 0x47,
  0xe9, 0xcf, 0xcf, 0x12, 0xde, 0x24, 0x06, 0xbb, 0x0c, 0x47, 0x17, 0xe4,
  0x4c, 0x18, 0x07, 0x0e, 0x14, 0xf0, 0xe8, 0xfc, 0xc0, 0x63, 0x07, 0xde,
  0x0a, 0x32, 0x44, 0x15, 0x52, 0x0d, 0x12, 0x0d, 0xdc, 0xe3, 0xc4, 0x0b,
  0xbd, 0x0d, 0x31, 0xe6, 0x0f, 0x0f, 0x11, 0xe5, 0x48, 0x07, 0xf7, 0xf6,
  0xc5, 0xc8, 0x1e, 0x09, 0x17, 0x37, 0x12, 0xd3, 0x21, 0xf4, 0xfb, 0xe7,
  0x0c, 0xf3, 0xd8, 0xe3, 0xef, 0xef, 0xde, 0xcb, 0xe6, 0x7f, 0xf2, 0xb7,
  0x13, 0x11, 0x07, 0x04, 0x21, 0x42, 0x14, 0x03, 0xad, 0xcd, 0xea, 0xc3,
  0x0f, 0x2a, 0x1e, 0xa3, 0x11, 0x1c, 0x02, 0xc4, 0x2b, 0x35, 0xeb, 0xcd,
  0xf9, 0xe1, 0x1e, 0x97, 0xd5, 0xed, 0x28, 0x1e, 0xfa, 0xfc, 0x56, 0xf2,
  0x73, 0xe1, 0xee, 0x94, 0x20, 0x04, 0xe6, 0x8f, 0xcd, 0xf2, 0xf9, 0xcf,
  0xe3, 0x40, 0x3f, 0x21, 0x0f, 0xc4, 0xf4, 0xb6, 0x25, 0x04, 0x43, 0x82,
  0xe5, 0x01, 0x45, 0xf2, 0x0a, 0x3b, 0x47, 0xf3, 0x52, 0xc9, 0x33, 0xd9,
  0x01, 0xdc, 0x19, 0xc9, 0x4c, 0x2a, 0x16, 0xdb, 0x1d, 0xe0, 0x23, 0xdb,
  0xff, 0x4f, 0x0c, 0xcc, 0x04, 0xf2, 0x28, 0xd3, 0x41, 0x20, 0x02, 0xef,
  0x06, 0xf4, 0xe9, 0xd5, 0x53, 0x07, 0x3c, 0xe9, 0xc8, 0xc5, 0x32, 0xf6,
  0xef, 0x19, 0xfe, 0xbc, 0xea, 0xcd, 0xe4, 0xa6, 0xf4, 0x7f, 0x37, 0x0c,
  0x23, 0xe2, 0xcc, 0xf3, 0x15, 0xe2, 0xfc, 0x20, 0xcf, 0xe3, 0x3b, 0x10,
  0xed, 0x4f, 0xca, 0x4d, 0x2c, 0xd5, 0xff, 0xcb, 0xf0, 0xd5, 0xd7, 0x26,
  0xdc, 0xf6, 0xe6, 0xdf, 0x16, 0x2e, 0xe0, 0xfc, 0x09, 0x0e, 0xd4, 0xd7,
  0xd2, 0xef, 0xe6, 0x18, 0xec, 0xe8, 0x13, 0x15, 0x0c, 0x1f, 0xc5, 0xe0,
  0x05, 0xf3, 0x23, 0x5e, 0x31, 0x2b, 0x05, 0xf0, 0x0f, 0xec, 0x1e, 0xf5,
  0xdf, 0x43, 0xe9, 0x17, 0x22, 0xf5, 0xf0, 0x1a, 0x2a, 0x0a, 0xdc, 0xe4,
  0xc7, 0x1b, 0xf8, 0xf8, 0x20, 0x41, 0x36, 0x51, 0xf5, 0x17, 0x04, 0x0b,
  0x2c, 0x26, 0x02, 0xfd, 0xdb, 0xea, 0xf6, 0xd8, 0xcb, 0x4b, 0x08, 0xfa,
  0xe0, 0x47, 0x19, 0xed, 0x12, 0x23, 0x1b, 0x7f, 0x2b, 0xf2, 0xd5, 0x16,
  0xf8, 0x2e, 0xec, 0xcc, 0x32, 0x5c, 0x27, 0xd7, 0x3c, 0x19, 0x0a, 0x7a,
  0x1b, 0xef, 0xea, 0xec, 0x1f, 0x35, 0x39, 0xee, 0x1d, 0x1b, 0xf6, 0xd9,
  0x09, 0xf0, 0x22, 0x35, 0xf1, 0xdd, 0x1b, 0x1f, 0x32, 0x6e, 0x11, 0xf5,
  0xee, 0x1b, 0xdf, 0x11, 0xf8, 0x01, 0x06, 0xc4, 0xd3, 0xd3, 0x0e, 0xfb,
  0x04, 0xe1, 0x9a, 0xf0, 0xe3, 0xe2, 0x1f, 0x39, 0x03, 0x4a, 0xe3, 0xfd,
  0xeb, 0x11, 0x30, 0xa9, 0xdf, 0xbc, 0x91, 0xf2, 0xc1, 0x12, 0xf3, 0x05,
  0x05, 0x10, 0xe7, 0xaa, 0xc9, 0xf0, 0x3f, 0xc2, 0x28, 0xed, 0xaa, 0x3d,
  0x11, 0x0c, 0xfe, 0xe9, 0xee, 0x3a, 0xbd, 0xf9, 0xab, 0xe2, 0xa9, 0x17,
  0xa5, 0xef, 0xb6, 0x49, 0xf4, 0xe2, 0xda, 0xfc, 0x28, 0xe4, 0xd4, 0xaf,
  0xf9, 0xbe, 0xff, 0xfb, 0xe5, 0x3c, 0xa6, 0x30, 0xd9, 0xbc, 0xcd, 0x0d,
  0x05, 0x45, 0xd6, 0xc9, 0xc3, 0xc1, 0xea, 0xf1, 0xf1, 0xe6, 0xeb, 0xfb,
  0x43, 0x45, 0x3e, 0x42, 0x1e, 0xf9, 0x3d, 0x26, 0x28, 0x39, 0x43, 0x03,
  0x38, 0x30, 0x41, 0xfe, 0x21, 0x03, 0x18, 0xda, 0x22, 0x94, 0x45, 0xff,
  0x7f, 0x34, 0x43, 0x0b, 0x47, 0xc7, 0x12, 0xdf, 0xef, 0x25, 0x70, 0xe4,
  0x1b, 0xac, 0x4b, 0xd7, 0x68, 0x27, 0x25, 0x11, 0x37, 0xde, 0xe5, 0xe4,
  0x1e, 0xf1, 0x6d, 0xfb, 0x33, 0xf2, 0x14, 0xe9, 0x12, 0xef, 0x0a, 0x09,
  0xef, 0xf2, 0xf7, 0x1b, 0x2f, 0xec, 0x1b, 0x13, 0x22, 0xd2, 0x14, 0x0b,
  0x3f, 0xb6, 0x16, 0x14, 0xe2, 0x0d, 0x28, 0x1e, 0xe9, 0x4d, 0x2e, 0x4d,
  0x0f, 0xeb, 0xed, 0x2c, 0x2a, 0xa7, 0xe2, 0xec, 0xbf, 0x37, 0x22, 0x4c,
  0x0e, 0xf1, 0x2b, 0xe0, 0xf2, 0xd8, 0xf6, 0x1a, 0xe1, 0xf8, 0xd4, 0xca,
  0xde, 0x1c, 0x10, 0xea, 0xf4, 0x19, 0x1f, 0x0c, 0x05, 0xcf, 0x1c, 0x43,
  0x02, 0xe8, 0xcf, 0xf1, 0xe1, 0xf6, 0xfd, 0xeb, 0x12, 0x56, 0x39, 0xe5,
  0x18, 0xe2, 0x07, 0x52, 0x19, 0xfc, 0x9a, 0xec, 0xe8, 0x0c, 0x07, 0xfa,
  0xb6, 0xc6, 0x23, 0xac, 0x0b, 0x18, 0x16, 0xe1, 0x4c, 0x1f, 0xef, 0x1d,
  0x2d, 0xf5, 0xde, 0x8f, 0xf4, 0xe5, 0x59, 0x99, 0x0f, 0x2a, 0x3f, 0xf5,
  0x2f, 0x1c, 0x37, 0x24, 0x41, 0xf5, 0xf1, 0xba, 0xe3, 0x31, 0x35, 0xb5,
  0x19, 0x0d, 0x7f, 0x3d, 0x61, 0x18, 0xdc, 0xe8, 0x1f, 0x0d, 0xfa, 0xbb,
  0xf3, 0xe5, 0xe4, 0xef, 0xe1, 0xf9, 0x1e, 0x05, 0x17, 0x1e, 0x2d, 0x22,
  0xfc, 0x02, 0xd1, 0xee, 0x46, 0xe8, 0x36, 0xdc, 0x0a, 0xfa, 0x3e, 0x2a,
  0x06, 0x0c, 0xfa, 0x2d, 0x19, 0x00, 0x2a, 0x01, 0x11, 0x22, 0x0d, 0xfe,
  0x01, 0x09, 0x2b, 0x0a, 0x34, 0x02, 0xe3, 0xe3, 0xfd, 0xef, 0x1f, 0xee,
  0xed, 0xdd, 0x2a, 0x25, 0xe6, 0x18, 0x32, 0xf0, 0x33, 0xf5, 0x66, 0x04,
  0xdf, 0x3e, 0xf1, 0x39, 0x35, 0xe3, 0x1d, 0x20, 0xfa, 0x06, 0xf3, 0xea,
  0xfa, 0xeb, 0x62, 0xf4, 0x2b, 0x42, 0x31, 0x45, 0xe1, 0x0d, 0xf7, 0x3a,
  0xea, 0xf1, 0xd8, 0xd7, 0x34, 0x18, 0x59, 0xf3, 0x2e, 0x26, 0x14, 0x33,
  0xef, 0xb1, 0xc4, 0xfd, 0x0b, 0x1f, 0xa7, 0xc5, 0xfd, 0xec, 0x09, 0x0f,
  0xc1, 0xff, 0xc5, 0x3e, 0xf8, 0xcb, 0xad, 0x61, 0xc6, 0xf5, 0x97, 0xc7,
  0xb8, 0xaa, 0xce, 0x19, 0x81, 0xee, 0x02, 0x0d, 0xc4, 0xfc, 0xd3, 0x37,
  0xd3, 0x13, 0xcd, 0xb8, 0xbf, 0xae, 0x01, 0xf2, 0xa0, 0xe1, 0xfa, 0xfe,
  0x42, 0x02, 0xe1, 0xcc, 0xeb, 0x0a, 0x09, 0x2a, 0x1c, 0x0c, 0xd6, 0x31,
  0xb3, 0x41, 0x23, 0x54, 0x1d, 0x14, 0xc1, 0xf5, 0xe4, 0xb7, 0xcf, 0x35,
  0x05, 0x26, 0x23, 0x2f, 0xc2, 0x34, 0x48, 0x43, 0x29, 0x05, 0x9e, 0x32,
  0xf7, 0xd7, 0xc3, 0x09, 0xcf, 0x30, 0x0e, 0x29, 0xa2, 0x0e, 0x0d, 0x18,
  0x1f, 0xed, 0x0f, 0x09, 0x0c, 0x0d, 0x1f, 0x22, 0xf1, 0x0a, 0x09, 0x18,
  0xcc, 0xfb, 0xdd, 0x1f, 0x30, 0xff, 0xc6, 0x1c, 0x11, 0x4e, 0xfb, 0x45,
  0x0c, 0x11, 0xde, 0x27, 0xe6, 0xe6, 0xda, 0xdd, 0xd5, 0xf6, 0xe2, 0x17,
  0x31, 0xff, 0x1a, 0x35, 0x13, 0x10, 0xb9, 0x0d, 0xe0, 0x12, 0xf8, 0xcc,
  0xbe, 0xfa, 0xc6, 0xed, 0xeb, 0x24, 0xdd, 0x8f, 0x04, 0x2d, 0x24, 0xf9,
  0xe0, 0x9e, 0xe7, 0xd7, 0xfa, 0xfd, 0xc4, 0xc9, 0xb6, 0x30, 0xa0, 0xc5,
  0x24, 0x20, 0xfb, 0xd4, 0xd9, 0x81, 0x84, 0xcf, 0xf5, 0xd5, 0xa0, 0xef,
  0xd6, 0x30, 0xe5, 0xfe, 0x01, 0xef, 0xdd, 0x0d, 0xee, 0xa5, 0xe6, 0xce,
  0xf1, 0x3b, 0xc5, 0xea, 0x1d, 0x60, 0xf8, 0x1f, 0x0b, 0x27, 0xee, 0x13,
  0x0b, 0x59, 0x16, 0xd7, 0x45, 0x0b, 0xd9, 0x1f, 0xdc, 0x10, 0xfa, 0xfa,
  0x0f, 0x3d, 0x24, 0x0c, 0x12, 0x03, 0x12, 0x41, 0x00, 0x19, 0xdd, 0x1d,
  0xeb, 0x5a, 0xe6, 0x0b, 0x04, 0x36, 0x32, 0x36, 0x1c, 0x4c, 0x2e, 0xe6,
  0xf6, 0xf4, 0xd7, 0xe2, 0xd2, 0xdd, 0x24, 0xe8, 0xe8, 0x2d, 0xe3, 0xef,
  0xf3, 0xf2, 0xca, 0xf6, 0xf8, 0xfc, 0xec, 0xd0, 0xd5, 0x2d, 0x0e, 0xc9,
  0xf8, 0x02, 0x29, 0xd9, 0xee, 0xd1, 0xd1, 0x0a, 0xf4, 0x00, 0x14, 0x06,
  0x0b, 0xe9, 0x0e, 0xbc, 0x12, 0x02, 0x08, 0xea, 0xf2, 0xde, 0xe8, 0x06,
  0xf8, 0x01, 0xf1, 0x1a, 0x0f, 0x7a, 0xf6, 0xf4, 0xf4, 0x0b, 0x05, 0x15,
  0x2a, 0x3e, 0x0c, 0x12, 0xf4, 0xd1, 0xf0, 0xfb, 0x19, 0x30, 0xec, 0x13,
  0xd7, 0x1c, 0xf2, 0xe6, 0xfc, 0x45, 0x14, 0xfc, 0x12, 0xdf, 0xfe, 0x1c,
  0xed, 0x7f, 0xeb, 0xfc, 0xd5, 0x1c, 0x0d, 0xde, 0x0d, 0x33, 0xfa, 0x23,
  0xee, 0xd0, 0xe1, 0xd6, 0x20, 0x26, 0x1f, 0xf4, 0xf8, 0xef, 0xfd, 0x14,
  0xff, 0xeb, 0x1c, 0xe2, 0xe4, 0xd1, 0xf9, 0xee, 0x35, 0x26, 0x0c, 0xe7,
  0xf1, 0x05, 0x04, 0xea, 0xfc, 0x0e, 0xea, 0xe0, 0x1c, 0xdb, 0xfb, 0xf6,
  0xfd, 0xf8, 0x0d, 0xec, 0xdc, 0xf7, 0xcf, 0xfa, 0xf8, 0xf7, 0x1e, 0xe3,
  0x01, 0xd5, 0xf5, 0xea, 0x1b, 0xfd, 0x1d, 0x12, 0x04, 0xfa, 0xee, 0x2c,
  0x14, 0xea, 0xe4, 0xd5, 0x06, 0xeb, 0x05, 0xd0, 0xea, 0x00, 0x1a, 0x04,
  0x00, 0xf7, 0xe0, 0x01, 0x12, 0xf3, 0xd6, 0xbd, 0x15, 0xcf, 0xe9, 0xea,
  0xec, 0x0c, 0x13, 0xe1, 0x1f, 0x08, 0xf4, 0x1f, 0xf7, 0xbe, 0x07, 0xb8,
  0xe9, 0xfa, 0xee, 0x29, 0xc7, 0xb7, 0xe4, 0xe1, 0x3d, 0xef, 0x1e, 0x23,
  0xd1, 0x1a, 0x25, 0x2b, 0x27, 0xf6, 0xeb, 0x32, 0xc5, 0xb6, 0xe4, 0x03,
  0x23, 0xd9, 0xe7, 0x47, 0xb3, 0x30, 0x2b, 0x22, 0x35, 0x16, 0xd4, 0x29,
  0xc3, 0xa3, 0xe6, 0x01, 0x31, 0xc2, 0xed, 0x12, 0xac, 0x37, 0x63, 0x2f,
  0x2b, 0x12, 0x22, 0x06, 0xf1, 0xd6, 0x0b, 0x11, 0x05, 0xfb, 0xf5, 0xe4,
  0xbd, 0x06, 0x52, 0x03, 0x23, 0x39, 0x31, 0x18, 0x0d, 0xc9, 0x03, 0x7f,
  0x1c, 0xfd, 0xe4, 0x15, 0xbc, 0x07, 0x2b, 0xf4, 0x56, 0x44, 0x16, 0x1d,
  0x0a, 0xcc, 0xf6, 0x65, 0x37, 0xf8, 0xd8, 0x36, 0xc7, 0x1a, 0x4c, 0xec,
  0x16, 0x10, 0x1e, 0xff, 0xfe, 0x00, 0x27, 0x1b, 0x07, 0x00, 0xf8, 0xef,
  0xe2, 0xff, 0x31, 0xf0, 0x1c, 0x1a, 0x30, 0xff, 0x26, 0xf6, 0x20, 0x34,
  0x1b, 0x00, 0x08, 0x01, 0xf5, 0x1d, 0x37, 0x05, 0x19, 0x08, 0x4a, 0x10,
  0x36, 0x00, 0x21, 0x3c, 0x2a, 0x13, 0xf8, 0xfc, 0xf4, 0x03, 0x18, 0x05,
  0x21, 0x48, 0xd3, 0x37, 0xe0, 0x08, 0xd9, 0x08, 0x26, 0x17, 0x14, 0x39,
  0xc6, 0x20, 0x07, 0x4d, 0xf6, 0xf6, 0xcf, 0x43, 0xd3, 0x2e, 0xd9, 0xce,
  0xdf, 0x2a, 0xf2, 0x3d, 0xef, 0x37, 0xed, 0x05, 0x39, 0x3e, 0xc7, 0x7f,
  0xd4, 0x24, 0xca, 0x26, 0x24, 0x15, 0x05, 0x0a, 0xd7, 0x36, 0x2c, 0x1e,
  0x22, 0x2c, 0x1d, 0xef, 0x18, 0xfe, 0xe8, 0xf2, 0xef, 0xf1, 0xe0, 0x15,
  0xc1, 0xfd, 0x28, 0xfc, 0x4b, 0x59, 0xf6, 0x1c, 0x03, 0xfb, 0xde, 0x23,
  0xe2, 0xf9, 0xba, 0x1b, 0xd2, 0x07, 0xf5, 0x05, 0x5a, 0xf4, 0x11, 0x19,
  0x02, 0xfc, 0x1a, 0x34, 0xd2, 0x3e, 0xcc, 0x24, 0xc6, 0xdd, 0x14, 0xf4,
  0x0d, 0xf0, 0x2c, 0xfc, 0x15, 0x02, 0x3d, 0x3b, 0x1c, 0x11, 0xee, 0x1f,
  0xf0, 0xfc, 0x07, 0x05, 0x23, 0x12, 0x31, 0xfe, 0x31, 0x06, 0x17, 0x21,
  0x24, 0x26, 0xc8, 0x02, 0xe1, 0x05, 0x0c, 0x15, 0x20, 0x04, 0x3a, 0x30,
  0x0c, 0xec, 0x49, 0x26, 0x0e, 0x27, 0xd8, 0x31, 0xcd, 0xf5, 0xf5, 0xe3,
  0x4c, 0x1d, 0xbc, 0x2c, 0xbf, 0xa1, 0xb8, 0x21, 0xf3, 0xdd, 0xc8, 0x02,
  0xad, 0xf9, 0x19, 0x61, 0xec, 0xee, 0xd1, 0xde, 0x9d, 0x98, 0xb6, 0xc1,
  0xee, 0xce, 0xd3, 0xed, 0xa3, 0xe7, 0x2d, 0x69, 0x15, 0xe7, 0xde, 0x2f,
  0xc1, 0xa3, 0x9b, 0xe4, 0xc4, 0x9c, 0x06, 0xca, 0xcd, 0x19, 0x07, 0x4d,
  0x23, 0x7f, 0x01, 0x05, 0xfa, 0xb2, 0x02, 0x6f, 0x19, 0xe5, 0x31, 0x4a,
  0xd6, 0x52, 0xd0, 0xf8, 0x1a, 0x1b, 0xf7, 0xe4, 0xc5, 0xae, 0xce, 0xf8,
  0xca, 0xc9, 0xf0, 0x40, 0xeb, 0x04, 0x20, 0x2e, 0xd7, 0x73, 0xd7, 0xcc,
  0xcb, 0x9c, 0x06, 0x24, 0xc8, 0x3a, 0xb2, 0x47, 0xcb, 0x2a, 0x15, 0x20,
  0x4d, 0x3b, 0xf0, 0x40, 0x19, 0x47, 0xd3, 0x19, 0x2f, 0xb7, 0x15, 0x30,
  0xb4, 0x09, 0x33, 0x23, 0x15, 0x0d, 0xe7, 0x32, 0x06, 0x30, 0xe3, 0xfc,
  0xfb, 0xcf, 0x16, 0x32, 0xf5, 0xed, 0xce, 0xeb, 0x05, 0xc1, 0xca, 0x14,
  0x0a, 0x0e, 0xe0, 0x34, 0xf7, 0xe5, 0xee, 0xfb, 0xf3, 0x07, 0x01, 0xf5,
  0xfc, 0xf2, 0x33, 0x18, 0x15, 0xdd, 0x41, 0xeb, 0x35, 0x1b, 0x2b, 0x5a,
  0x48, 0xf8, 0x40, 0x08, 0xfb, 0x02, 0x5e, 0x2a, 0x2c, 0xe2, 0x7f, 0x3e,
  0x78, 0x24, 0x52, 0x0e, 0x02, 0x1b, 0x2c, 0x09, 0x3a, 0x24, 0x69, 0x3c,
  0x3f, 0xe2, 0x43, 0x3c, 0x7f, 0x27, 0x13, 0x63, 0x02, 0x0f, 0x2f, 0xef,
  0x1d, 0xdf, 0x1a, 0x0d, 0xf8, 0xe9, 0x19, 0x14, 0xef, 0x0a, 0xe2, 0x0d,
  0xe0, 0x10, 0x36, 0x1c, 0x39, 0xed, 0x2b, 0x36, 0x13, 0x10, 0x1f, 0x44,
  0x28, 0xe4, 0xfe, 0x24, 0xd8, 0x0a, 0x56, 0x17, 0x24, 0xe9, 0x33, 0x3c,
  0x2a, 0xf5, 0x07, 0x56, 0x42, 0x08, 0xff, 0x31, 0xc9, 0x46, 0x33, 0x12,
  0xec, 0xf8, 0xe1, 0x0a, 0xe5, 0x03, 0x2c, 0x10, 0xdc, 0xfb, 0xdf, 0xf2,
  0x20, 0xfb, 0x1e, 0x11, 0x14, 0x08, 0x2d, 0x0c, 0x0d, 0x0e, 0x16, 0x29,
  0xfe, 0xf6, 0x02, 0xfb, 0x31, 0x1c, 0x28, 0xda, 0x17, 0xe1, 0x29, 0xf3,
  0x27, 0x19, 0xf8, 0x2d, 0xf4, 0xe7, 0xc0, 0xd5, 0x08, 0x2f, 0x02, 0x03,
  0xf9, 0xf5, 0xd7, 0x2c, 0xe2, 0x1b, 0xaf, 0xdb, 0x0a, 0x06, 0xd6, 0x12,
  0xb7, 0xb2, 0x03, 0xdd, 0xcb, 0xe2, 0x91, 0x4e, 0x82, 0xf3, 0xa6, 0xe7,
  0xdb, 0xdd, 0x15, 0xd8, 0xb1, 0xb8, 0xc6, 0xf2, 0xc0, 0xfd, 0xcb, 0x5f,
  0xb3, 0xeb, 0xd2, 0x98, 0xff, 0xd3, 0x02, 0x18, 0xa9, 0xd3, 0xc4, 0x16,
  0x29, 0x0e, 0xba, 0x17, 0x1f, 0x08, 0xf6, 0x7f, 0x05, 0x3f, 0xd5, 0x20,
  0x13, 0x01, 0xf0, 0x20, 0xda, 0x4c, 0xd2, 0xf1, 0xda, 0xdc, 0x01, 0x69,
  0x02, 0x27, 0xfc, 0x13, 0xd3, 0x0f, 0x2b, 0x09, 0x26, 0x36, 0xc5, 0x41,
  0x0c, 0x1e, 0xf7, 0x2c, 0xff, 0x03, 0xfc, 0x23, 0xf5, 0x02, 0x25, 0xf1,
  0xd9, 0xeb, 0x2a, 0xf2, 0x12, 0x06, 0x47, 0x39, 0x24, 0xe7, 0xf0, 0xf4,
  0xfe, 0x18, 0xf3, 0x2a, 0x25, 0x2c, 0xfd, 0xf2, 0x1c, 0x34, 0x0e, 0xfa,
  0xc6, 0x0a, 0xe3, 0x26, 0xd6, 0x01, 0xef, 0xdc, 0xdb, 0xf0, 0x19, 0x27,
  0x64, 0x5c, 0x23, 0x43, 0xee, 0xe4, 0xef, 0xe1, 0x22, 0xf9, 0xdc, 0x15,
  0xca, 0xe9, 0x4d, 0xa6, 0xe9, 0x3e, 0x63, 0x0f, 0x56, 0x31, 0xe7, 0x22,
  0x6a, 0xe2, 0xf6, 0xa2, 0xe7, 0xfd, 0xfb, 0xab, 0x25, 0x10, 0x7f, 0x0a,
  0xfd, 0x19, 0x25, 0x20, 0x46, 0x07, 0x1c, 0xbd, 0xe1, 0x04, 0x55, 0xc9,
  0x33, 0x4f, 0x4c, 0x26, 0x26, 0x41, 0xee, 0x2d, 0x29, 0x0a, 0xfe, 0x89,
  0x23, 0xe7, 0x1f, 0xea, 0xf2, 0xd2, 0x5c, 0x22, 0x1e, 0x0f, 0x0a, 0x1e,
  0xe9, 0xd1, 0x1c, 0xe6, 0x40, 0xf0, 0x35, 0xfa, 0x02, 0x02, 0x39, 0x17,
  0x0a, 0xdd, 0x21, 0xfb, 0x54, 0x11, 0xff, 0x09, 0x2a, 0xf8, 0x10, 0x02,
  0xfd, 0xfa, 0x5e, 0x36, 0x20, 0xf3, 0x12, 0x2b, 0x01, 0x06, 0x57, 0xf9,
  0x22, 0xdb, 0xee, 0x0f, 0x01, 0x1c, 0xe0, 0xee, 0x15, 0x17, 0x49, 0x31,
  0x40, 0x1a, 0x1e, 0x44, 0x3b, 0x0e, 0x09, 0x51, 0x17, 0x0d, 0xeb, 0xdd,
  0x2f, 0xcf, 0x39, 0xf0, 0x2a, 0x3e, 0x1a, 0x5e, 0x34, 0xe1, 0x0d, 0x40,
  0xd5, 0x1d, 0x08, 0x0e, 0x00, 0x15, 0x58, 0x2c, 0xf3, 0x5b, 0x2b, 0x33,
  0xee, 0x27, 0xc7, 0xea, 0xb3, 0xd0, 0x13, 0xfa, 0xf3, 0x1c, 0x19, 0x1d,
  0xf0, 0xda, 0xe0, 0xf5, 0x17, 0x3d, 0xd0, 0x07, 0xd3, 0xc4, 0xd2, 0xd3,
  0x52, 0xdf, 0x02, 0x37, 0x20, 0xf4, 0xcd, 0xe4, 0xec, 0x18, 0x1c, 0xdc,
  0xa9, 0xda, 0x11, 0x05, 0x06, 0x1d, 0x0f, 0x07, 0x03, 0xca, 0x2e, 0x06,
  0xe2, 0xe5, 0x0b, 0xff, 0xf8, 0x30, 0x21, 0xc6, 0x0b, 0xf7, 0xf6, 0xed,
  0x15, 0x21, 0x2a, 0xe8, 0xd4, 0xf4, 0xed, 0x0f, 0x06, 0x30, 0x39, 0x0d,
  0x4b, 0xf0, 0xe6, 0xef, 0xf8, 0x11, 0xdc, 0x02, 0xc8, 0xe7, 0xf8, 0xee,
  0x12, 0x33, 0xfb, 0xd5, 0x1a, 0x02, 0xfd, 0x1d, 0x0c, 0xe9, 0x1a, 0x05,
  0xda, 0x0f, 0xf9, 0xd1, 0x13, 0xf8, 0x39, 0x06, 0x39, 0xfc, 0x09, 0xdb,
  0x18, 0xd8, 0x0a, 0xce, 0xde, 0x39, 0x1f, 0xcd, 0x1e, 0xff, 0xeb, 0xd7,
  0x18, 0x52, 0x17, 0x12, 0x57, 0x08, 0xd4, 0xc8, 0x09, 0xf0, 0x0a, 0xc9,
  0xe2, 0x14, 0x7f, 0x24, 0x3d, 0xfe, 0x0b, 0x0f, 0x48, 0xcb, 0x2f, 0xe9,
  0x4a, 0x1e, 0x00, 0x34, 0xf0, 0xa7, 0xd3, 0xf0, 0xee, 0xc9, 0x2f, 0x16,
  0xf1, 0x06, 0x2b, 0x5e, 0x5b, 0xec, 0xe6, 0xd9, 0xe4, 0x8a, 0xee, 0xf6,
  0xd2, 0xc8, 0xf6, 0xee, 0xd4, 0x0f, 0x07, 0xfa, 0xc7, 0x0f, 0xe2, 0x1b,
  0xf5, 0x81, 0xed, 0x0d, 0xf2, 0xab, 0xf6, 0xfe, 0xd4, 0xc6, 0x11, 0x32,
  0xeb, 0x26, 0x47, 0xf0, 0x0e, 0xa5, 0x1b, 0x28, 0xf8, 0x08, 0xe3, 0xea,
  0x24, 0x1e, 0xf4, 0xe7, 0x1e, 0x65, 0x1d, 0xf2, 0x0e, 0x9a, 0x0b, 0x1b,
  0xf5, 0xd7, 0x00, 0x25, 0x19, 0xe7, 0xef, 0xdd, 0xd4, 0x42, 0xe8, 0xf1,
  0xec, 0xc6, 0xf3, 0x32, 0x1d, 0x07, 0xe2, 0xef, 0xfb, 0xe1, 0xed, 0xe7,
  0x38, 0x01, 0x16, 0x17, 0x25, 0xca, 0x04, 0xf6, 0x2a, 0xd3, 0x38, 0x06,
  0xf5, 0x28, 0x40, 0xfa, 0x10, 0xe7, 0x19, 0x31, 0x26, 0x11, 0xfb, 0x0d,
  0x0c, 0xb9, 0x11, 0xdd, 0xf5, 0x02, 0xf3, 0x28, 0x06, 0x17, 0xfb, 0x2b,
  0xec, 0xf2, 0xdc, 0x25, 0xe5, 0xe5, 0xe5, 0x0f, 0xbe, 0x19, 0x21, 0xec,
  0xe7, 0xdd, 0xe6, 0x23, 0xf9, 0x51, 0x15, 0xfe, 0xfa, 0x13, 0x13, 0xee,
  0x11, 0x37, 0x1d, 0xfe, 0xf3, 0xd6, 0xea, 0x29, 0xf9, 0x2f, 0x16, 0xe9,
  0xf2, 0x16, 0x18, 0xf5, 0x1e, 0x43, 0x0c, 0x11, 0xf8, 0xdc, 0xeb, 0x24,
  0x19, 0x7f, 0x1c, 0xf0, 0xea, 0x19, 0x01, 0xe5, 0x19, 0x2b, 0x07, 0x0a,
  0xf3, 0xd4, 0xf5, 0xe6, 0x2d, 0x2d, 0x1d, 0xf8, 0x02, 0xf2, 0x02, 0xee,
  0xf6, 0x26, 0x03, 0xee, 0xe3, 0xd1, 0xf2, 0xfd, 0x06, 0x09, 0x1b, 0xfd,
  0xfe, 0xec, 0xf2, 0xe1, 0xf9, 0x1b, 0x1d, 0xea, 0xf2, 0xd3, 0x02, 0xf6,
  0x14, 0x3f, 0x14, 0xfc, 0xe9, 0x02, 0x14, 0xf0, 0x0a, 0x12, 0x1a, 0xe7,
  0xf0, 0xea, 0xf3, 0xb9, 0xeb, 0xfb, 0x32, 0x10, 0x0f, 0x1b, 0x15, 0x11,
  0x0e, 0xee, 0x04, 0xba, 0x14, 0xd6, 0x0b, 0xb1, 0xfc, 0x15, 0x0b, 0xf1,
  0x09, 0x25, 0x05, 0xee, 0x12, 0xf9, 0xe9, 0xdf, 0xf0, 0xfa, 0x02, 0xd4,
  0xea, 0xf5, 0x1c, 0xfb, 0xee, 0x0e, 0x1b, 0xfb, 0x25, 0xef, 0x1b, 0xc4,
  0xb1, 0xb8, 0xc9, 0x4d, 0xfa, 0x6c, 0xfe, 0xa9, 0x09, 0xfe, 0x30, 0xaa,
  0x1d, 0x39, 0xda, 0xea, 0x07, 0xf6, 0xdc, 0x17, 0xdb, 0x7f, 0xf6, 0xa4,
  0xf8, 0x23, 0x2a, 0xd4, 0xd2, 0xf5, 0xd2, 0x06, 0x0d, 0xc4, 0xf2, 0xf5,
  0xf7, 0x75, 0xdb, 0xba, 0x19, 0x13, 0xdf, 0x9f, 0xd6, 0x60, 0xd1, 0xda,
  0xd5, 0x26, 0xc5, 0xe5, 0x35, 0x10, 0xa6, 0xe2, 0xa9, 0xe6, 0x26, 0x19,
  0xf4, 0x23, 0xe3, 0x2f, 0xe4, 0x35, 0xbe, 0xdb, 0x29, 0x23, 0xad, 0x2d,
  0xc7, 0xcd, 0xe6, 0x45, 0xcc, 0x41, 0xdc, 0x3a, 0x24, 0x08, 0xb2, 0xe6,
  0x2f, 0x7a, 0xb9, 0xf6, 0xf1, 0xd6, 0xfa, 0x22, 0x01, 0xe8, 0xbd, 0xfe,
  0xdb, 0x24, 0xf5, 0x5f, 0x2e, 0x65, 0xed, 0xd7, 0xc5, 0x20, 0xd3, 0x0d,
  0x0a, 0xf3, 0xe5, 0xf4, 0xc0, 0x1b, 0xe8, 0x46, 0x3c, 0x10, 0xca, 0xd0,
  0xe9, 0xe2, 0x03, 0xf7, 0xe1, 0x22, 0x07, 0xf2, 0xc0, 0xe6, 0xd4, 0x2f,
  0x3e, 0x72, 0xb9, 0x1f, 0xf1, 0xfd, 0xc4, 0xec, 0xfc, 0x23, 0xdc, 0xf7,
  0x26, 0xcc, 0x59, 0xf2, 0x68, 0xfa, 0x76, 0xf3, 0x1b, 0x46, 0xfd, 0x0d,
  0x2a, 0x1b, 0x2f, 0xdd, 0x2b, 0xca, 0x5d, 0xff, 0x3e, 0xf5, 0x6c, 0x0d,
  0x65, 0x08, 0x2c, 0x36, 0x23, 0x09, 0x4e, 0xcd, 0x0b, 0xda, 0x7f, 0xf3,
  0x4b, 0xfa, 0x23, 0xf8, 0x25, 0x0d, 0xe0, 0xfb, 0x09, 0x1a, 0x42, 0xe2,
  0x27, 0xdc, 0x07, 0x28, 0xf8, 0xdf, 0x07, 0x25, 0xf2, 0xf2, 0xf9, 0xe9,
  0x00, 0xf5, 0x26, 0x04, 0x51, 0xda, 0x1a, 0x2c, 0x1d, 0xd4, 0x04, 0x5b,
  0x2c, 0xf5, 0xd5, 0xf9, 0x01, 0x0b, 0x40, 0x25, 0x31, 0xe7, 0x49, 0x1b,
  0x27, 0xe7, 0x0f, 0x4c, 0x25, 0xe7, 0xe4, 0xec, 0xf6, 0xfc, 0x3a, 0x0b,
  0x2e, 0xc0, 0x13, 0x07, 0xf4, 0x02, 0x01, 0xf4, 0xf0, 0x0a, 0x25, 0xf4,
  0x11, 0x14, 0x1c, 0x34, 0x21, 0xbf, 0x21, 0x38, 0x07, 0xf0, 0x1b, 0xf9,
  0xfd, 0xef, 0x11, 0x1c, 0x10, 0x1f, 0x58, 0x2d, 0x14, 0xd0, 0x33, 0x42,
  0x16, 0x06, 0x10, 0x23, 0x07, 0xd8, 0x21, 0x00, 0x0a, 0x3e, 0x2e, 0x2a,
  0xf6, 0x54, 0xb4, 0x19, 0xda, 0x21, 0xd4, 0xdd, 0x11, 0x44, 0x0c, 0x18,
  0x07, 0x1c, 0xf6, 0x1c, 0xf7, 0x48, 0xce, 0x37, 0xcb, 0x38, 0x1f, 0xe2,
  0x3f, 0x30, 0xfc, 0x16, 0xfb, 0xfa, 0x37, 0x2f, 0xe2, 0x1d, 0xcf, 0x3d,
  0xe0, 0x4b, 0xe2, 0xe0, 0x16, 0x21, 0x02, 0xeb, 0x33, 0x21, 0xed, 0x2c,
  0xdf, 0xcf, 0xba, 0xc3, 0x00, 0xfd, 0x0f, 0xce, 0x20, 0x2c, 0xdd, 0xec,
  0x03, 0x10, 0xec, 0xe8, 0xfb, 0x1d, 0xbd, 0xc9, 0xda, 0x1c, 0xd6, 0x08,
  0xf4, 0x26, 0xdd, 0x2a, 0xd4, 0xf5, 0x2b, 0x1d, 0x0a, 0xe6, 0xce, 0x00,
  0xf0, 0x56, 0x42, 0x08, 0x40, 0x44, 0xe1, 0xf9, 0x0d, 0xea, 0xec, 0x04,
  0xe2, 0x0a, 0xe9, 0xd2, 0x34, 0xfe, 0x7f, 0x06, 0x26, 0x3c, 0x05, 0x33,
  0x42, 0xbb, 0xdf, 0xe3, 0xd8, 0xeb, 0xf1, 0xa9, 0xf8, 0x01, 0xe0, 0xa4,
  0x0f, 0x1f, 0xc3, 0x14, 0xcb, 0xdc, 0x99, 0xc8, 0x3a, 0x0c, 0x0f, 0xc7,
  0x12, 0x26, 0x29, 0x12, 0x51, 0x51, 0x1a, 0x5d, 0x4b, 0xc5, 0xf5, 0xa5,
  0x8a, 0xf4, 0xff, 0xff, 0x04, 0x00, 0x00, 0x00, 0x80, 0x00, 0x00, 0x00,
  0xd1, 0xd6, 0xff, 0xff, 0x36, 0xb0, 0x00, 0x00, 0x53, 0xf1, 0xff, 0xff,
  0x4f, 0x17, 0x00, 0x00, 0x40, 0x1d, 0x00, 0x00, 0x53, 0xc1, 0xff, 0xff,
  0x55, 0x08, 0x00, 0x00, 0x8e, 0x23, 0x00, 0x00, 0x07, 0x33, 0x00, 0x00,
  0xf7, 0x11, 0x00, 0x00, 0x8a, 0xfa, 0xff, 0xff, 0x5c, 0xe5, 0xff, 0xff,
  0x6b, 0x0a, 0x00, 0x00, 0x32, 0xfa, 0xff, 0xff, 0x37, 0x33, 0x00, 0x00,
  0x7f, 0xb6, 0xff, 0xff, 0xc8, 0xb9, 0xff, 0xff, 0x1c, 0x1e, 0x00, 0x00,
  0x5b, 0x22, 0x00, 0x00, 0xbe, 0x0b, 0x00, 0x00, 0x65, 0xc2, 0xff, 0xff,
  0x9b, 0xc5, 0xff, 0xff, 0x12, 0x15, 0x00, 0x00, 0x4c, 0x86, 0xff, 0xff,
  0xac, 0x08, 0x00, 0x00, 0x37, 0x96, 0xff, 0xff, 0x35, 0xf7, 0xff, 0xff,
  0xec, 0x0f, 0x00, 0x00, 0xe3, 0xf1, 0xff, 0xff, 0x4f, 0x21, 0x00, 0x00,
  0x84, 0x93, 0xff, 0xff, 0xf4, 0xf6, 0xff, 0xff, 0x16, 0xf5, 0xff, 0xff,
  0x04, 0x00, 0x00, 0x00, 0x00, 0x08, 0x00, 0x00, 0xf5, 0xab, 0xe5, 0xe8,
  0xc8, 0xfe, 0x81, 0xce, 0xa6, 0xf7, 0xc7, 0x00, 0xfc, 0xd3, 0x90, 0x00,
  0x00, 0xaf, 0xb9, 0xef, 0xfe, 0xf7, 0x9c, 0x00, 0x8e, 0x00, 0xf0, 0xbe,
  0xff, 0xf7, 0x00, 0xdb, 0xd4, 0x00, 0xf4, 0xfe, 0xfd, 0x9d, 0xfd, 0xb7,
  0x00, 0xc5, 0x00, 0xc1, 0xd0, 0xfd, 0xff, 0xcf, 0x8e, 0x00, 0x00, 0x00,
  0xf9, 0xdf, 0x00, 0xce, 0x00, 0x97, 0x81, 0xe8, 0xdf, 0x00, 0xd6, 0xb2,
  0xd5, 0x00, 0xed, 0x00, 0xf3, 0xe2, 0xfd, 0xe1, 0x00, 0xf5, 0x00, 0xae,
  0x00, 0x00, 0x00, 0xa5, 0xf1, 0x00, 0x00, 0x00, 0xcf, 0xb3, 0x00, 0x8c,
  0x00, 0xce, 0xf7, 0xf6, 0xff, 0x00, 0x81, 0xfa, 0xf2, 0xc6, 0x92, 0x2f,
  0xb2, 0x1f, 0xf3, 0xa8, 0xec, 0xfb, 0xc7, 0x11, 0xce, 0x0a, 0x0c, 0xb4,
  0xc2, 0x43, 0xcb, 0xb3, 0x4e, 0x4d, 0xb5, 0xc4, 0xfd, 0x81, 0xce, 0x1b,
  0xfc, 0x1e, 0x2d, 0x69, 0xfc, 0xff, 0xfc, 0x00, 0xde, 0xb7, 0xf0, 0x81,
  0x00, 0xfb, 0x00, 0xb5, 0xdd, 0xd8, 0xf4, 0xb2, 0xd6, 0x00, 0xff, 0x00,
  0xff, 0x00, 0xfd, 0xb8, 0x00, 0xae, 0xa0, 0xcf, 0xf1, 0xff, 0xb9, 0xdf,
  0x0a, 0xe8, 0xf1, 0xf2, 0xf1, 0x10, 0xef, 0xec, 0xf2, 0xac, 0xa3, 0xe2,
  0x0f, 0x27, 0x04, 0xec, 0x95, 0xf2, 0xdc, 0xc1, 0x3e, 0xa3, 0xe2, 0xe6,
  0xa5, 0x81, 0xc0, 0x7c, 0xef, 0xf2, 0xfd, 0x15, 0x62, 0xd9, 0xe0, 0xab,
  0x13, 0x3b, 0xbd, 0x0e, 0x3a, 0xa8, 0x36, 0x9d, 0x03, 0xc7, 0xe8, 0xc1,
  0xd7, 0x1e, 0xe3, 0x4f, 0x7f, 0x5d, 0x3e, 0xd7, 0x20, 0xa9, 0xe9, 0x4a,
  0x4e, 0xb9, 0x10, 0x3a, 0xc4, 0x81, 0x6c, 0x2e, 0xf5, 0x3b, 0x73, 0x9f,
  0xf3, 0xe2, 0x9b, 0xa6, 0x41, 0xdf, 0xcf, 0xe9, 0x6a, 0xef, 0x0c, 0x8d,
  0xf6, 0x62, 0xea, 0x05, 0xa4, 0x6e, 0x30, 0x11, 0x92, 0xdd, 0x28, 0x8e,
  0x63, 0x10, 0x1b, 0x52, 0xbf, 0xed, 0xc1, 0x81, 0x71, 0x08, 0x07, 0x8c,
  0x40, 0xbc, 0x01, 0x1a, 0xa0, 0x30, 0xd2, 0x4e, 0x35, 0x2b, 0x8c, 0x17,
  0x14, 0x3d, 0xda, 0xb1, 0x48, 0x19, 0xd9, 0x7e, 0x09, 0x3b, 0x44, 0x9b,
  0xd3, 0xd4, 0xb3, 0x44, 0x34, 0x2a, 0x0d, 0x5d, 0x1e, 0x4d, 0xd6, 0x2f,
  0xfa, 0x2a, 0xab, 0x28, 0x6e, 0xb9, 0x4d, 0x7f, 0xe0, 0x11, 0xda, 0xfb,
  0xce, 0xb7, 0x47, 0xa8, 0x2b, 0x16, 0xd4, 0x23, 0xe2, 0xcc, 0x83, 0x58,
  0x38, 0x46, 0x4a, 0x7f, 0xe4, 0x33, 0xa2, 0x0f, 0x58, 0x52, 0xb8, 0xc4,
  0x43, 0xd0, 0xa1, 0x34, 0xfd, 0x73, 0x26, 0xa5, 0xec, 0x58, 0x3c, 0xcc,
  0x4d, 0x21, 0x4b, 0x36, 0xac, 0xdb, 0x96, 0x35, 0x45, 0xa0, 0xc8, 0x3e,
  0x81, 0xed, 0xf2, 0x6f, 0x2f, 0x20, 0xaf, 0xd5, 0x5a, 0x2d, 0xf2, 0x34,
  0xf1, 0x9d, 0x4d, 0xec, 0x5b, 0x26, 0x3e, 0xae, 0xe1, 0x45, 0x05, 0x03,
  0x49, 0xba, 0x1d, 0xea, 0x49, 0xc5, 0x0c, 0x3d, 0x55, 0xed, 0xe7, 0xc9,
  0xe6, 0x4c, 0x42, 0xc1, 0xe4, 0xce, 0x42, 0x81, 0xbe, 0x2a, 0xe6, 0xe2,
  0xc1, 0x14, 0xe1, 0x2b, 0x57, 0x24, 0x5a, 0x0a, 0xb5, 0x13, 0xc0, 0xed,
  0x36, 0xc2, 0x18, 0xd4, 0xf0, 0x20, 0x4b, 0x78, 0xb8, 0xb5, 0xa6, 0x41,
  0x48, 0x7f, 0x37, 0xf7, 0x2d, 0xef, 0x8b, 0xfc, 0x93, 0x9d, 0xb1, 0x00,
  0x2b, 0x8b, 0xbf, 0x37, 0x21, 0xf6, 0x0b, 0x9b, 0x93, 0x1c, 0xc7, 0xe3,
  0x4c, 0x92, 0xdd, 0x0b, 0x60, 0x5f, 0x37, 0x54, 0x21, 0xb2, 0x81, 0xb6,
  0x2a, 0xa5, 0x55, 0xe0, 0xc4, 0xbd, 0xfe, 0xa1, 0xe3, 0xe8, 0x61, 0xba,
  0xea, 0xd6, 0xca, 0x52, 0x3b, 0xd5, 0xf1, 0x00, 0x81, 0x30, 0x3b, 0x29,
  0xb7, 0x32, 0x2d, 0xa4, 0x6c, 0x26, 0x26, 0x03, 0x2e, 0xe3, 0xa7, 0x18,
  0x1e, 0x03, 0xee, 0xca, 0x27, 0x56, 0x9a, 0x3e, 0x4a, 0x1b, 0xe9, 0x3f,
  0x30, 0x5b, 0xb8, 0x5e, 0x08, 0x59, 0x12, 0x37, 0x59, 0x39, 0x92, 0x96,
  0x08, 0x9c, 0xed, 0xbd, 0xc6, 0xea, 0x09, 0xe8, 0x8c, 0x3e, 0x2f, 0x81,
  0xc7, 0x85, 0xaf, 0x13, 0x6d, 0x25, 0xf9, 0x39, 0x4a, 0x63, 0x56, 0xbc,
  0xe2, 0x81, 0x8f, 0x15, 0x51, 0xb6, 0x01, 0x60, 0xb5, 0xd5, 0xfd, 0xb9,
  0xfa, 0xfc, 0xa9, 0x41, 0x23, 0xb3, 0x23, 0xad, 0x98, 0x0d, 0xb8, 0x0e,
  0x16, 0xaa, 0x49, 0x43, 0x4d, 0xdb, 0x2e, 0xc4, 0xf0, 0x2f, 0x16, 0xd6,
  0x9e, 0x61, 0xe6, 0x43, 0x97, 0xf4, 0x55, 0x81, 0x65, 0xbd, 0xaf, 0x19,
  0xff, 0x2e, 0x8e, 0x9a, 0x39, 0x1f, 0xfe, 0xf9, 0xc3, 0xbb, 0xc7, 0x19,
  0x3e, 0x9f, 0xe3, 0x2d, 0xa0, 0xf6, 0x5c, 0x19, 0x96, 0x4e, 0xed, 0xa5,
  0x5a, 0x58, 0x31, 0xe9, 0xc1, 0xfb, 0xf1, 0x7f, 0xa5, 0x23, 0x1c, 0xba,
  0x28, 0xf7, 0xd4, 0xfa, 0xfb, 0x41, 0xf7, 0xe1, 0xf7, 0xf4, 0xf8, 0xdb,
  0xf9, 0xfa, 0xef, 0x1e, 0xcb, 0xf6, 0xfb, 0xd8, 0xdf, 0x1b, 0xf9, 0xe0,
  0xfb, 0x1d, 0xb8, 0xe5, 0xf8, 0xfc, 0x81, 0xd5, 0xb5, 0xcd, 0x01, 0x43,
  0x4c, 0x56, 0x18, 0x52, 0x93, 0x6c, 0xc2, 0x1f, 0xe9, 0xa8, 0x1b, 0xcc,
  0x4f, 0x81, 0x04, 0x8c, 0x9a, 0x2a, 0xf8, 0xbf, 0x3b, 0x6e, 0x39, 0xe2,
  0xc5, 0x04, 0x85, 0x31, 0x65, 0xd0, 0x0b, 0x14, 0xe1, 0x45, 0xcd, 0xb7,
  0x4a, 0x67, 0x37, 0xd9, 0x68, 0x8c, 0xbf, 0xc2, 0xdd, 0xd0, 0x49, 0x28,
  0xa8, 0x6e, 0xdb, 0xab, 0x0a, 0xf4, 0xcf, 0xd6, 0x7f, 0x5c, 0xfb, 0xef,
  0xbe, 0x39, 0xec, 0x46, 0x2c, 0x81, 0x14, 0xfb, 0x40, 0x15, 0x1c, 0xee,
  0x03, 0x51, 0x26, 0xad, 0xce, 0xfd, 0x03, 0x36, 0x18, 0xfa, 0x1a, 0xaf,
  0xdf, 0xa0, 0x96, 0xfc, 0x18, 0xd9, 0x10, 0xf8, 0x94, 0xac, 0x30, 0x1d,
  0xb7, 0x4a, 0x4a, 0xf3, 0x9e, 0x8a, 0x21, 0x3f, 0xcf, 0xdc, 0x01, 0x29,
  0x89, 0x7f, 0xbc, 0x5c, 0x0a, 0x08, 0xf2, 0xc9, 0x3d, 0x95, 0x64, 0xb8,
  0x1c, 0xc0, 0xe2, 0x33, 0xbc, 0x27, 0x0a, 0x52, 0xf1, 0x92, 0x48, 0x03,
  0x3f, 0xc8, 0x25, 0xbc, 0xc9, 0x2b, 0x24, 0x81, 0xa8, 0x29, 0x38, 0x42,
  0xba, 0xf8, 0xe6, 0x8d, 0x5c, 0xa5, 0xc8, 0x09, 0x0d, 0x30, 0xb2, 0xab,
  0x61, 0x1a, 0x08, 0x59, 0x20, 0x1e, 0xa7, 0x1c, 0xc5, 0x0f, 0x42, 0x81,
  0xdf, 0x9f, 0x08, 0xc2, 0xc4, 0xd2, 0x26, 0xe9, 0xc9, 0x60, 0x28, 0xed,
  0xeb, 0x37, 0xf4, 0xef, 0x6f, 0x29, 0xd4, 0x48, 0x6d, 0x2d, 0x87, 0x0d,
  0xd8, 0xc4, 0xbe, 0x84, 0x16, 0x2f, 0x6d, 0x14, 0x3f, 0xba, 0x0a, 0x2b,
  0x14, 0x49, 0x53, 0x03, 0xfb, 0x25, 0xff, 0x10, 0xda, 0x4b, 0xc7, 0x81,
  0x50, 0xde, 0xd6, 0x5f, 0xcb, 0xc0, 0x3b, 0x28, 0x65, 0xd8, 0x4e, 0xda,
  0x1d, 0xa8, 0x09, 0xb2, 0xed, 0x06, 0x43, 0xe4, 0x34, 0x58, 0x43, 0xe2,
  0xc9, 0x04, 0x5b, 0xa7, 0xcd, 0xa7, 0x11, 0x30, 0xf6, 0xfe, 0x81, 0xdd,
  0x00, 0x00, 0x00, 0x00, 0x00, 0x00, 0x00, 0x00, 0x00, 0x00, 0x00, 0x00,
  0x00, 0x00, 0x00, 0x00, 0x00, 0x00, 0x00, 0x00, 0x00, 0x00, 0x00, 0x00,
  0x00, 0x00, 0x00, 0x00, 0x00, 0x00, 0x00, 0x00, 0x5a, 0x98, 0x4a, 0x15,
  0xbb, 0x2c, 0xc9, 0xf9, 0x36, 0x22, 0x4d, 0x9d, 0xeb, 0x0e, 0x9b, 0x81,
  0xe5, 0x32, 0xc3, 0x1f, 0x66, 0x49, 0x30, 0x31, 0x74, 0x92, 0x49, 0x1e,
  0xb6, 0xf0, 0xf3, 0xc3, 0x2a, 0x53, 0x60, 0x12, 0xbb, 0x9e, 0x5c, 0x0e,
  0xcb, 0x36, 0x8c, 0xc4, 0xa7, 0xad, 0xd3, 0x62, 0xf8, 0x51, 0xc5, 0xcb,
  0x7f, 0x35, 0x49, 0x07, 0x51, 0x83, 0xaf, 0x41, 0x00, 0x39, 0x40, 0xd9,
  0x0d, 0x81, 0xed, 0xf1, 0xd3, 0xff, 0xe7, 0xc0, 0xc4, 0xf9, 0x20, 0xf2,
  0x1c, 0xc1, 0x0e, 0xff, 0x00, 0x42, 0x41, 0xfb, 0xf1, 0x20, 0x22, 0x00,
  0x34, 0xff, 0x06, 0x2f, 0xfc, 0x0b, 0xfe, 0xf1, 0x24, 0x63, 0x97, 0x27,
  0xde, 0xb8, 0x03, 0x46, 0xcc, 0xe3, 0x12, 0x7f, 0x1f, 0xe7, 0x4c, 0x42,
  0x29, 0xd3, 0xb0, 0x0f, 0xb2, 0x85, 0xe4, 0xff, 0x00, 0x68, 0xd5, 0x36,
  0x32, 0x03, 0xfc, 0xbe, 0x44, 0x31, 0x35, 0xa6, 0x81, 0x04, 0xe4, 0x8c,
  0xf4, 0xb6, 0x5a, 0xd0, 0x4c, 0xbe, 0xa0, 0x1e, 0xde, 0x6b, 0x58, 0x66,
  0x63, 0x65, 0x20, 0xdd, 0xcf, 0xc0, 0x48, 0x92, 0x61, 0x27, 0x0e, 0x64,
  0x81, 0x81, 0x81, 0x81, 0x81, 0x81, 0x81, 0x82, 0x81, 0x81, 0x81, 0x81,
  0x82, 0x81, 0x81, 0x82, 0x81, 0x82, 0x81, 0x81, 0x84, 0x82, 0x81, 0x82,
  0x82, 0x81, 0x81, 0x81, 0x81, 0x82, 0x81, 0x81, 0xe0, 0xc1, 0xc6, 0x49,
  0x1d, 0xe3, 0xd7, 0x09, 0xff, 0xca, 0x08, 0xa2, 0xd9, 0xf9, 0x81, 0xdc,
  0xe5, 0xa5, 0xeb, 0xbd, 0xdb, 0xee, 0x82, 0xd7, 0xa3, 0xf4, 0xda, 0xfb,
  0xb7, 0xe9, 0xe3, 0xdc, 0x07, 0xb3, 0x0d, 0x4d, 0x17, 0xac, 0x3d, 0xe2,
  0x28, 0x1a, 0x53, 0x81, 0x6e, 0x98, 0x89, 0x9f, 0x1e, 0x5d, 0x59, 0xc6,
  0xc5, 0x2b, 0x33, 0x39, 0x5c, 0x03, 0x2f, 0xb2, 0x67, 0x5d, 0x92, 0x5f,
  0xea, 0x5f, 0xe9, 0xbb, 0xf5, 0xf0, 0xa9, 0x4d, 0x32, 0xc5, 0xce, 0xf4,
  0xda, 0x0b, 0x76, 0x74, 0xa2, 0xc0, 0xbf, 0x9f, 0x73, 0x3d, 0xd4, 0x5b,
  0xfa, 0x9d, 0x11, 0x7f, 0xbd, 0x15, 0x5c, 0xc6, 0xaf, 0xc2, 0x27, 0x55,
  0x1c, 0x5f, 0x1a, 0x4c, 0x9c, 0xd0, 0x27, 0x66, 0x2d, 0x1f, 0xf8, 0xd3,
  0xd3, 0x39, 0x13, 0x4a, 0x84, 0x87, 0xf8, 0xd6, 0xe1, 0x4a, 0xdb, 0x0c,
  0x20, 0xcb, 0x7f, 0xb3, 0xb0, 0x26, 0xef, 0x44, 0x03, 0x98, 0x40, 0x37,
  0xdf, 0xd5, 0x48, 0x2b, 0x0e, 0x50, 0x32, 0xd2, 0xa0, 0x5b, 0xd2, 0x41,
  0x0a, 0xdd, 0x3d, 0x81, 0x35, 0xb7, 0x9a, 0x08, 0xbc, 0x2a, 0xa7, 0xbc,
  0x3c, 0xfa, 0xfe, 0x1b, 0xf0, 0xbd, 0x81, 0xff, 0xfc, 0x42, 0xfa, 0xa1,
  0xae, 0xe5, 0xa8, 0x00, 0xfe, 0x93, 0xef, 0xfb, 0x09, 0x09, 0xf2, 0x4b,
  0xf2, 0xa1, 0xf7, 0x49, 0x00, 0x57, 0xe9, 0xf0, 0x81, 0x3e, 0xe9, 0xd3,
  0xc9, 0x85, 0x40, 0xe2, 0x67, 0x41, 0x6f, 0xb3, 0xad, 0xfa, 0x6a, 0xd1,
  0xd7, 0x2c, 0x57, 0xd7, 0x84, 0x26, 0x1f, 0xce, 0xcf, 0x8e, 0xc6, 0x3c,
  0x52, 0x47, 0xea, 0xed, 0xa4, 0x4a, 0x33, 0x2e, 0x43, 0xd8, 0x37, 0xca,
  0x69, 0xa1, 0x14, 0x20, 0xed, 0x0a, 0x4d, 0xa2, 0xaf, 0x06, 0x3e, 0x3e,
  0xcd, 0x11, 0x1e, 0x81, 0x18, 0x82, 0xce, 0xae, 0xd2, 0xf4, 0x83, 0x24,
  0x00, 0x69, 0x00, 0x7f, 0xf5, 0x00, 0xfc, 0x00, 0xe9, 0x00, 0xca, 0x00,
  0xe9, 0xa3, 0xc8, 0x00, 0x00, 0xf8, 0xed, 0x8d, 0x00, 0x00, 0xfd, 0x00,
  0xf7, 0x00, 0x00, 0x00, 0x12, 0x18, 0x00, 0x00, 0x08, 0x59, 0xed, 0x41,
  0xdc, 0x97, 0xf4, 0x63, 0xa4, 0x81, 0xd9, 0xd2, 0xd0, 0xcb, 0x03, 0xcd,
  0xad, 0xbd, 0xe8, 0xe7, 0x65, 0x5d, 0x31, 0xe3, 0xb3, 0x0f, 0x9c, 0xda,
  0x23, 0x33, 0x54, 0xc4, 0x81, 0x06, 0x88, 0xd3, 0x4d, 0x48, 0x19, 0x28,
  0xbc, 0x12, 0x08, 0x79, 0x7d, 0x74, 0x44, 0xbb, 0xe4, 0x04, 0xcf, 0x0c,
  0x14, 0x8e, 0xa1, 0xd3, 0xf7, 0x48, 0xbb, 0x04, 0xeb, 0x57, 0x6d, 0x12,
  0xe6, 0x10, 0xa2, 0x68, 0x65, 0xa8, 0x05, 0xc2, 0x2a, 0x43, 0x6b, 0xfa,
  0x35, 0x52, 0xf8, 0xc8, 0xa1, 0xc7, 0x2a, 0xe2, 0xfb, 0x28, 0x28, 0x81,
  0x48, 0xe0, 0x12, 0xbf, 0x44, 0x1a, 0xdb, 0xd7, 0xd6, 0x12, 0x0b, 0xe1,
  0x31, 0xbc, 0x07, 0x02, 0xad, 0x48, 0xd0, 0x3d, 0x20, 0x5f, 0x15, 0x1c,
  0xfc, 0xed, 0xe9, 0x1a, 0x2e, 0x81, 0x34, 0x6d, 0xd2, 0xf8, 0xd9, 0x33,
  0x2f, 0x32, 0x46, 0x97, 0x3b, 0xfb, 0xf3, 0x5a, 0xb8, 0xb5, 0x9a, 0xb3,
  0x0c, 0x71, 0xb7, 0xe7, 0x28, 0x43, 0x8f, 0x9b, 0x6b, 0x2f, 0x5f, 0x31,
  0x23, 0x44, 0x00, 0x08, 0x21, 0x40, 0xfb, 0x81, 0x4c, 0xad, 0x11, 0xfb,
  0x56, 0x3c, 0x9b, 0xd9, 0x04, 0xe2, 0x99, 0x17, 0x25, 0x26, 0xd3, 0x71,
  0x21, 0x52, 0x11, 0xaf, 0x2c, 0xc5, 0xfb, 0xfa, 0x88, 0x99, 0x48, 0xfb,
  0xee, 0x5b, 0x62, 0x82, 0x7f, 0xfc, 0x50, 0xf8, 0xf6, 0x95, 0x4b, 0xc6,
  0x28, 0x2d, 0x09, 0xe5, 0xdc, 0x6e, 0xd5, 0x5c, 0xc5, 0xc5, 0xef, 0x64,
  0x6c, 0x81, 0x87, 0x38, 0x01, 0xbc, 0x35, 0x25, 0xae, 0xc5, 0xc0, 0xbb,
  0x6e, 0xf8, 0x07, 0x23, 0x15, 0x52, 0xc1, 0x2e, 0xef, 0x4c, 0x8d, 0xa3,
  0x6d, 0x2d, 0xf2, 0x53, 0xf9, 0x15, 0xeb, 0xc0, 0x47, 0xe5, 0x58, 0x38,
  0xdc, 0xb7, 0xa6, 0x0e, 0xc5, 0x15, 0xea, 0x92, 0x7f, 0xdd, 0x12, 0x61,
  0xfa, 0x42, 0x18, 0x81, 0xb7, 0x3b, 0xd9, 0x60, 0x26, 0xfa, 0xa0, 0x35,
  0xf8, 0x43, 0xf6, 0x1c, 0xfc, 0x0d, 0x01, 0xa0, 0x5b, 0x4f, 0x41, 0xd2,
  0xa9, 0xaf, 0x20, 0x3a, 0xf3, 0x30, 0x53, 0x99, 0xec, 0x20, 0x3e, 0xd7,
  0x36, 0xf3, 0xcf, 0x6e, 0x2a, 0xc1, 0x10, 0xc5, 0x81, 0x16, 0xf2, 0x41,
  0x28, 0xf0, 0xd3, 0x15, 0x77, 0x71, 0x2f, 0xc0, 0xb0, 0x99, 0x49, 0x04,
  0x9a, 0xfe, 0xf0, 0xf2, 0xbd, 0x44, 0xf8, 0x10, 0x2b, 0x81, 0x1f, 0x00,
  0x34, 0xd4, 0x2e, 0xf2, 0xed, 0x25, 0x38, 0x9e, 0x9d, 0x37, 0x25, 0x1e,
  0xea, 0xe3, 0x30, 0x90, 0x26, 0xac, 0xad, 0xe3, 0xfa, 0x35, 0xa9, 0xde,
  0x05, 0x3b, 0xca, 0xd7, 0x02, 0xc5, 0x38, 0xf4, 0x58, 0xe6, 0xfc, 0xfc,
  0x0d, 0x3e, 0x2e, 0xd5, 0x0d, 0xf9, 0xd5, 0x5d, 0xf7, 0x14, 0x47, 0xf3,
  0xf2, 0xbd, 0x2b, 0xd2, 0x0b, 0x2a, 0x81, 0xc0, 0x59, 0x12, 0xb6, 0x55,
  0x92, 0xf8, 0x0d, 0x9f, 0x1f, 0x6d, 0xc6, 0x6d, 0x43, 0x05, 0xde, 0xa3,
  0xfa, 0xef, 0x17, 0xfe, 0xef, 0x5f, 0x03, 0x1f, 0x50, 0x04, 0x4d, 0xb2,
  0x7f, 0x21, 0x70, 0xbb, 0x0c, 0x07, 0x3a, 0xda, 0x85, 0xa4, 0x75, 0x86,
  0x92, 0xdf, 0x52, 0xa0, 0x46, 0x91, 0x88, 0xcb, 0x5d, 0x91, 0x3b, 0x37,
  0x1e, 0xe7, 0xea, 0xc0, 0x7f, 0xbc, 0x01, 0x66, 0xc6, 0x5a, 0xb6, 0xdd,
  0xe8, 0x67, 0x37, 0x96, 0x26, 0x43, 0x39, 0x43, 0xb8, 0x19, 0x8e, 0xf7,
  0x81, 0x1f, 0xca, 0x41, 0x29, 0xed, 0x1b, 0x0f, 0x37, 0x06, 0x5d, 0x08,
  0xcf, 0x33, 0xe1, 0x1e, 0xe0, 0x1f, 0x04, 0x9d, 0xcf, 0xd2, 0xd8, 0x23,
  0x14, 0xc8, 0x28, 0xc8, 0xe0, 0x0f, 0x05, 0x3c, 0x98, 0x9f, 0xe4, 0x52,
  0xe3, 0xbc, 0x54, 0x5e, 0x81, 0x38, 0x92, 0x13, 0xa0, 0x9b, 0x4e, 0x2b,
  0x2f, 0x4b, 0x86, 0x2f, 0xcd, 0x35, 0x04, 0xf2, 0x08, 0xbc, 0x55, 0x29,
  0x1c, 0xc5, 0x13, 0xfd, 0x2a, 0x2d, 0x5d, 0x8d, 0x81, 0x58, 0xde, 0x08,
  0xc3, 0x32, 0xee, 0x8b, 0x38, 0xc6, 0xbd, 0xdb, 0xea, 0x51, 0xcf, 0xb8,
  0x10, 0xbd, 0x1c, 0x06, 0xfc, 0xeb, 0x49, 0x7e, 0xdc, 0xeb, 0x2c, 0xc1,
  0x83, 0xda, 0x3e, 0x78, 0xf6, 0xa2, 0xe1, 0x11, 0x51, 0x5c, 0xfc, 0x7f,
  0xce, 0x2c, 0xb5, 0xb9, 0x9e, 0x23, 0x6f, 0xb4, 0xa8, 0xc9, 0xcf, 0xc5,
  0x0c, 0x06, 0x12, 0x22, 0x91, 0x09, 0x8d, 0x60, 0xf5, 0xf1, 0xe8, 0x12,
  0x26, 0x81, 0xae, 0xba, 0x98, 0x8f, 0xb3, 0x16, 0xb6, 0x37, 0xeb, 0xf4,
  0xb8, 0xc6, 0x35, 0xc8, 0x22, 0xfd, 0xff, 0xff, 0x04, 0x00, 0x00, 0x00,
  0x00, 0x01, 0x00, 0x00, 0x88, 0x8e, 0xff, 0xff, 0x82, 0x83, 0xff, 0xff,
  0xc8, 0x64, 0xfe, 0xff, 0x35, 0xfc, 0xff, 0xff, 0x92, 0xb5, 0xff, 0xff,
  0xea, 0xf8, 0xff, 0xff, 0xf2, 0xfb, 0xff, 0xff, 0x53, 0x05, 0x00, 0x00,
  0xb0, 0xfa, 0xff, 0xff, 0x19, 0xfe, 0xff, 0xff, 0xd2, 0xfe, 0xff, 0xff,
  0x9c, 0xfd, 0xff, 0xff, 0x28, 0x01, 0x00, 0x00, 0xf8, 0xfe, 0xff, 0xff,
  0xad, 0xfc, 0xff, 0xff, 0xc2, 0xfc, 0xff, 0xff, 0x93, 0xfe, 0xff, 0xff,
  0xb1, 0xfd, 0xff, 0xff, 0x6d, 0x00, 0x00, 0x00, 0x2a, 0x00, 0x00, 0x00,
  0x52, 0xea, 0xff, 0xff, 0xf3, 0xfd, 0xff, 0xff, 0xf1, 0xfb, 0xff, 0xff,
  0x31, 0x00, 0x00, 0x00, 0x35, 0xfe, 0xff, 0xff, 0x2a, 0x02, 0x00, 0x00,
  0xde, 0xfa, 0xff, 0xff, 0xda, 0xfc, 0xff, 0xff, 0xc5, 0x01, 0x00, 0x00,
  0x00, 0x00, 0x00, 0x00, 0x96, 0xfc, 0xff, 0xff, 0xf6, 0xff, 0xff, 0xff,
  0x98, 0x74, 0xfe, 0xff, 0xd4, 0x02, 0x00, 0x00, 0x8a, 0xf9, 0xff, 0xff,
  0x68, 0xe7, 0xff, 0xff, 0x3f, 0xf4, 0xff, 0xff, 0xff, 0xfa, 0xff, 0xff,
  0x71, 0x01, 0x00, 0x00, 0x25, 0x00, 0x00, 0x00, 0x8d, 0xff, 0xff, 0xff,
  0xc9, 0xfa, 0xff, 0xff, 0x71, 0x00, 0x00, 0x00, 0xa6, 0x00, 0x00, 0x00,
  0x8a, 0xa6, 0xff, 0xff, 0x95, 0xfd, 0xff, 0xff, 0x68, 0x00, 0x00, 0x00,
  0x4d, 0x00, 0x00, 0x00, 0xf0, 0xfd, 0xff, 0xff, 0x8a, 0xfe, 0xff, 0xff,
  0xd9, 0xff, 0xff, 0xff, 0xe5, 0xfc, 0xff, 0xff, 0x61, 0xfc, 0xff, 0xff,
  0xb9, 0x01, 0x00, 0x00, 0xa5, 0x00, 0x00, 0x00, 0x72, 0x02, 0x00, 0x00,
  0x06, 0xfe, 0xff, 0xff, 0x5d, 0xfc, 0xff, 0xff, 0x22, 0xfb, 0xff, 0xff,
  0x1f, 0x00, 0x00, 0x00, 0xa3, 0xfe, 0xff, 0xff, 0xbb, 0x00, 0x00, 0x00,
  0xce, 0xfb, 0xff, 0xff, 0x66, 0xfd, 0xff, 0xff, 0x2e, 0xfe, 0xff, 0xff,
  0x04, 0x00, 0x00, 0x00, 0x00, 0x01, 0x00, 0x00, 0xeb, 0x1a, 0xd7, 0x1f,
  0xe4, 0xe7, 0xbd, 0xf8, 0xbf, 0x27, 0x40, 0x07, 0x19, 0xa4, 0x27, 0xd9,
  0x65, 0xf7, 0xca, 0xf4, 0xc2, 0x00, 0xc3, 0xbb, 0xcf, 0x96, 0xf4, 0xee,
  0xda, 0xea, 0xd4, 0xcf, 0xea, 0x7a, 0xc9, 0xce, 0xfc, 0xb7, 0x1c, 0x61,
  0xbe, 0xc2, 0x01, 0x8b, 0xdb, 0x00, 0x50, 0xa8, 0x22, 0x06, 0x66, 0x4e,
  0x3d, 0x0c, 0xda, 0x81, 0xbe, 0x1c, 0xd4, 0x0f, 0xda, 0xe3, 0xff, 0x0f,
  0x34, 0x27, 0xf2, 0xea, 0x00, 0x17, 0x54, 0xf2, 0x30, 0xe6, 0x21, 0xfb,
  0xfb, 0x00, 0xf6, 0xb5, 0xe1, 0x1c, 0xd7, 0xc9, 0xe5, 0x05, 0x5d, 0xd9,
  0x25, 0xac, 0x3f, 0x4a, 0xd1, 0x08, 0x3d, 0xc0, 0xd3, 0xb4, 0x40, 0xfe,
  0x2c, 0x20, 0x89, 0x06, 0x9f, 0x0a, 0xdf, 0xad, 0x36, 0x1d, 0xe8, 0x2b,
  0xbf, 0x54, 0x3d, 0xce, 0x58, 0xc6, 0xd7, 0x81, 0x1b, 0x22, 0xe3, 0xbf,
  0x25, 0xd2, 0xe1, 0xc8, 0xf0, 0x31, 0xcf, 0xcb, 0xfb, 0x15, 0x60, 0x05,
  0xce, 0x27, 0x18, 0x2b, 0xac, 0x7f, 0xde, 0x77, 0x0f, 0xeb, 0xcf, 0x64,
  0xcb, 0xea, 0x8d, 0xb7, 0xbd, 0xa9, 0x14, 0xa4, 0xa9, 0x15, 0x57, 0x7c,
  0xfe, 0xb8, 0x05, 0x2a, 0xe7, 0xb5, 0x65, 0xf2, 0xd9, 0x19, 0x9a, 0xc4,
  0x1e, 0xe0, 0xa9, 0xa6, 0xec, 0xa3, 0xae, 0xb9, 0xb3, 0x25, 0x76, 0xe0,
  0x0f, 0xf0, 0xfc, 0x2d, 0xdc, 0xcc, 0x16, 0xd7, 0xf0, 0xce, 0xd4, 0x1b,
  0xfa, 0x24, 0xef, 0x27, 0xd3, 0xb0, 0xb1, 0x8f, 0x44, 0xfe, 0xc9, 0x33,
  0x0e, 0xd3, 0x7f, 0xfa, 0x06, 0x37, 0x08, 0x74, 0x07, 0x7a, 0x18, 0xd7,
  0x3e, 0x0b, 0xe9, 0x0a, 0xdc, 0xd8, 0xd9, 0xd1, 0xd7, 0x2b, 0xd2, 0x17,
  0x49, 0x30, 0x67, 0x64, 0x11, 0xec, 0x06, 0x53, 0xd3, 0xac, 0xde, 0x2e,
  0xb6, 0xc6, 0x0c, 0x79, 0x5a, 0xcd, 0xcc, 0xfa, 0xf9, 0x76, 0xd9, 0x12,
  0x3a, 0xff, 0xff, 0xff, 0x04, 0x00, 0x00, 0x00, 0x10, 0x00, 0x00, 0x00,
  0xc6, 0x02, 0x00, 0x00, 0x5a, 0xff, 0xff, 0xff, 0x56, 0x00, 0x00, 0x00,
  0x25, 0xfe, 0xff, 0xff, 0x56, 0xff, 0xff, 0xff, 0x04, 0x00, 0x00, 0x00,
  0x08, 0x00, 0x00, 0x00, 0x01, 0x00, 0x00, 0x00, 0x02, 0x00, 0x00, 0x00,
  0xf8, 0xe7, 0xff, 0xff, 0xfc, 0xe7, 0xff, 0xff, 0x0f, 0x00, 0x00, 0x00,
  0x4d, 0x4c, 0x49, 0x52, 0x20, 0x43, 0x6f, 0x6e, 0x76, 0x65, 0x72, 0x74,
  0x65, 0x64, 0x2e, 0x00, 0x01, 0x00, 0x00, 0x00, 0x14, 0x00, 0x00, 0x00,
  0x00, 0x00, 0x0e, 0x00, 0x18, 0x00, 0x14, 0x00, 0x10, 0x00, 0x0c, 0x00,
  0x08, 0x00, 0x04, 0x00, 0x0e, 0x00, 0x00, 0x00, 0x14, 0x00, 0x00, 0x00,
  0x1c, 0x00, 0x00, 0x00, 0x5c, 0x02, 0x00, 0x00, 0x60, 0x02, 0x00, 0x00,
  0x64, 0x02, 0x00, 0x00, 0x04, 0x00, 0x00, 0x00, 0x6d, 0x61, 0x69, 0x6e,
  0x00, 0x00, 0x00, 0x00, 0x08, 0x00, 0x00, 0x00, 0xf8, 0x01, 0x00, 0x00,
  0x94, 0x01, 0x00, 0x00, 0x44, 0x01, 0x00, 0x00, 0x00, 0x01, 0x00, 0x00,
  0xbc, 0x00, 0x00, 0x00, 0x78, 0x00, 0x00, 0x00, 0x40, 0x00, 0x00, 0x00,
  0x04, 0x00, 0x00, 0x00, 0x96, 0xfe, 0xff, 0xff, 0x1c, 0x00, 0x00, 0x00,
  0x00, 0x00, 0x00, 0x09, 0x1c, 0x00, 0x00, 0x00, 0x20, 0x00, 0x00, 0x00,
  0x04, 0x00, 0x00, 0x00, 0x00, 0x00, 0x06, 0x00, 0x08, 0x00, 0x04, 0x00,
  0x06, 0x00, 0x00, 0x00, 0x00, 0x00, 0x80, 0x3f, 0x01, 0x00, 0x00, 0x00,
  0x11, 0x00, 0x00, 0x00, 0x01, 0x00, 0x00, 0x00, 0x10, 0x00, 0x00, 0x00,
  0x5a, 0xff, 0xff, 0xff, 0x14, 0x00, 0x00, 0x00, 0x00, 0x00, 0x00, 0x08,
  0x10, 0x00, 0x00, 0x00, 0x14, 0x00, 0x00, 0x00, 0x03, 0x00, 0x00, 0x00,
  0xc4, 0xe8, 0xff, 0xff, 0x01, 0x00, 0x00, 0x00, 0x10, 0x00, 0x00, 0x00,
  0x03, 0x00, 0x00, 0x00, 0x0f, 0x00, 0x00, 0x00, 0x03, 0x00, 0x00, 0x00,
  0x02, 0x00, 0x00, 0x00, 0x02, 0xff, 0xff, 0xff, 0x1c, 0x00, 0x00, 0x00,
  0x00, 0x00, 0x00, 0x08, 0x1c, 0x00, 0x00, 0x00, 0x20, 0x00, 0x00, 0x00,
  0x03, 0x00, 0x00, 0x00, 0x00, 0x00, 0x06, 0x00, 0x08, 0x00, 0x07, 0x00,
  0x06, 0x00, 0x00, 0x00, 0x00, 0x00, 0x00, 0x01, 0x01, 0x00, 0x00, 0x00,
  0x0f, 0x00, 0x00, 0x00, 0x03, 0x00, 0x00, 0x00, 0x0e, 0x00, 0x00, 0x00,
  0x05, 0x00, 0x00, 0x00, 0x04, 0x00, 0x00, 0x00, 0xce, 0xff, 0xff, 0xff,
  0x14, 0x00, 0x00, 0x00, 0x00, 0x00, 0x00, 0x1b, 0x10, 0x00, 0x00, 0x00,
  0x14, 0x00, 0x00, 0x00, 0x02, 0x00, 0x00, 0x00, 0x38, 0xe9, 0xff, 0xff,
  0x01, 0x00, 0x00, 0x00, 0x0e, 0x00, 0x00, 0x00, 0x02, 0x00, 0x00, 0x00,
  0x0d, 0x00, 0x00, 0x00, 0x01, 0x00, 0x00, 0x00, 0x00, 0x00, 0x0e, 0x00,
  0x18, 0x00, 0x14, 0x00, 0x10, 0x00, 0x0c, 0x00, 0x0b, 0x00, 0x04, 0x00,
  0x0e, 0x00, 0x00, 0x00, 0x14, 0x00, 0x00, 0x00, 0x00, 0x00, 0x00, 0x05,
  0x24, 0x00, 0x00, 0x00, 0x28, 0x00, 0x00, 0x00, 0x01, 0x00, 0x00, 0x00,
  0x72, 0xff, 0xff, 0xff, 0x02, 0x00, 0x00, 0x00, 0x02, 0x00, 0x00, 0x00,
  0x02, 0x00, 0x00, 0x00, 0x02, 0x00, 0x00, 0x00, 0x00, 0x00, 0x00, 0x01,
  0x01, 0x00, 0x00, 0x00, 0x0d, 0x00, 0x00, 0x00, 0x01, 0x00, 0x00, 0x00,
  0x0c, 0x00, 0x00, 0x00, 0x62, 0xff, 0xff, 0xff, 0x10, 0x00, 0x00, 0x00,
  0x00, 0x00, 0x00, 0x01, 0x18, 0x00, 0x00, 0x00, 0x1c, 0x00, 0x00, 0x00,
  0x54, 0xff, 0xff, 0xff, 0x00, 0x00, 0x00, 0x01, 0x01, 0x00, 0x00, 0x00,
  0x01, 0x00, 0x00, 0x00, 0x01, 0x00, 0x00, 0x00, 0x0c, 0x00, 0x00, 0x00,
  0x03, 0x00, 0x00, 0x00, 0x0b, 0x00, 0x00, 0x00, 0x07, 0x00, 0x00, 0x00,
  0x06, 0x00, 0x00, 0x00, 0x00, 0x00, 0x0e, 0x00, 0x1a, 0x00, 0x14, 0x00,
  0x10, 0x00, 0x0c, 0x00, 0x0b, 0x00, 0x04, 0x00, 0x0e, 0x00, 0x00, 0x00,
  0x24, 0x00, 0x00, 0x00, 0x00, 0x00, 0x00, 0x05, 0x34, 0x00, 0x00, 0x00,
  0x38, 0x00, 0x00, 0x00, 0x01, 0x00, 0x00, 0x00, 0x00, 0x00, 0x0e, 0x00,
  0x18, 0x00, 0x17, 0x00, 0x10, 0x00, 0x0c, 0x00, 0x08, 0x00, 0x04, 0x00,
  0x0e, 0x00, 0x00, 0x00, 0x02, 0x00, 0x00, 0x00, 0x02, 0x00, 0x00, 0x00,
  0x02, 0x00, 0x00, 0x00, 0x02, 0x00, 0x00, 0x00, 0x00, 0x00, 0x00, 0x01,
  0x01, 0x00, 0x00, 0x00, 0x0b, 0x00, 0x00, 0x00, 0x01, 0x00, 0x00, 0x00,
  0x0a, 0x00, 0x00, 0x00, 0x00, 0x00, 0x0e, 0x00, 0x14, 0x00, 0x00, 0x00,
  0x10, 0x00, 0x0c, 0x00, 0x0b, 0x00, 0x04, 0x00, 0x0e, 0x00, 0x00, 0x00,
  0x1c, 0x00, 0x00, 0x00, 0x00, 0x00, 0x00, 0x01, 0x24, 0x00, 0x00, 0x00,
  0x28, 0x00, 0x00, 0x00, 0x0c, 0x00, 0x10, 0x00, 0x00, 0x00, 0x0c, 0x00,
  0x08, 0x00, 0x07, 0x00, 0x0c, 0x00, 0x00, 0x00, 0x00, 0x00, 0x00, 0x01,
  0x01, 0x00, 0x00, 0x00, 0x01, 0x00, 0x00, 0x00, 0x01, 0x00, 0x00, 0x00,
  0x0a, 0x00, 0x00, 0x00, 0x03, 0x00, 0x00, 0x00, 0x00, 0x00, 0x00, 0x00,
  0x09, 0x00, 0x00, 0x00, 0x08, 0x00, 0x00, 0x00, 0x01, 0x00, 0x00, 0x00,
  0x11, 0x00, 0x00, 0x00, 0x01, 0x00, 0x00, 0x00, 0x00, 0x00, 0x00, 0x00,
  0x12, 0x00, 0x00, 0x00, 0x94, 0x15, 0x00, 0x00, 0x38, 0x15, 0x00, 0x00,
  0x98, 0x14, 0x00, 0x00, 0x0c, 0x14, 0x00, 0x00, 0xb8, 0x10, 0x00, 0x00,
  0x5c, 0x0d, 0x00, 0x00, 0x88, 0x0b, 0x00, 0x00, 0xa4, 0x09, 0x00, 0x00,
  0x90, 0x08, 0x00, 0x00, 0x6c, 0x07, 0x00, 0x00, 0xb0, 0x05, 0x00, 0x00,
  0x14, 0x05, 0x00, 0x00, 0x28, 0x03, 0x00, 0x00, 0x84, 0x02, 0x00, 0x00,
  0xf0, 0x01, 0x00, 0x00, 0x2c, 0x01, 0x00, 0x00, 0x80, 0x00, 0x00, 0x00,
  0x04, 0x00, 0x00, 0x00, 0xca, 0xea, 0xff, 0xff, 0x00, 0x00, 0x00, 0x01,
  0x18, 0x00, 0x00, 0x00, 0x20, 0x00, 0x00, 0x00, 0x3c, 0x00, 0x00, 0x00,
  0x12, 0x00, 0x00, 0x00, 0x00, 0x00, 0x00, 0x09, 0x50, 0x00, 0x00, 0x00,
  0x02, 0x00, 0x00, 0x00, 0xff, 0xff, 0xff, 0xff, 0x04, 0x00, 0x00, 0x00,
  0xac, 0xea, 0xff, 0xff, 0x08, 0x00, 0x00, 0x00, 0x10, 0x00, 0x00, 0x00,
  0x01, 0x00, 0x00, 0x00, 0x80, 0xff, 0xff, 0xff, 0xff, 0xff, 0xff, 0xff,
  0x01, 0x00, 0x00, 0x00, 0x00, 0x00, 0x80, 0x3b, 0x1b, 0x00, 0x00, 0x00,
  0x53, 0x74, 0x61, 0x74, 0x65, 0x66, 0x75, 0x6c, 0x50, 0x61, 0x72, 0x74,
  0x69, 0x74, 0x69, 0x6f, 0x6e, 0x65, 0x64, 0x43, 0x61, 0x6c, 0x6c, 0x5f,
  0x31, 0x3a, 0x30, 0x00, 0x02, 0x00, 0x00, 0x00, 0x01, 0x00, 0x00, 0x00,
  0x04, 0x00, 0x00, 0x00, 0x42, 0xeb, 0xff, 0xff, 0x00, 0x00, 0x00, 0x01,
  0x18, 0x00, 0x00, 0x00, 0x20, 0x00, 0x00, 0x00, 0x40, 0x00, 0x00, 0x00,
  0x11, 0x00, 0x00, 0x00, 0x00, 0x00, 0x00, 0x09, 0x80, 0x00, 0x00, 0x00,
  0x02, 0x00, 0x00, 0x00, 0xff, 0xff, 0xff, 0xff, 0x04, 0x00, 0x00, 0x00,
  0x24, 0xeb, 0xff, 0xff, 0x08, 0x00, 0x00, 0x00, 0x14, 0x00, 0x00, 0x00,
  0x01, 0x00, 0x00, 0x00, 0xe8, 0xff, 0xff, 0xff, 0xff, 0xff, 0xff, 0xff,
  0x00, 0x00, 0x00, 0x00, 0x01, 0x00, 0x00, 0x00, 0xda, 0x49, 0xaa, 0x3d,
  0x44, 0x00, 0x00, 0x00, 0x6d, 0x66, 0x63, 0x63, 0x5f, 0x63, 0x6e, 0x6e,
  0x5f, 0x6c, 0x69, 0x67, 0x68, 0x74, 0x5f, 0x31, 0x2f, 0x64, 0x65, 0x6e,
  0x73, 0x65, 0x5f, 0x31, 0x5f, 0x32, 0x2f, 0x4d, 0x61, 0x74, 0x4d, 0x75,
  0x6c, 0x3b, 0x6d, 0x66, 0x63, 0x63, 0x5f, 0x63, 0x6e, 0x6e, 0x5f, 0x6c,
  0x69, 0x67, 0x68, 0x74, 0x5f, 0x31, 0x2f, 0x64, 0x65, 0x6e, 0x73, 0x65,
  0x5f, 0x31, 0x5f, 0x32, 0x2f, 0x42, 0x69, 0x61, 0x73, 0x41, 0x64, 0x64,
  0x00, 0x00, 0x00, 0x00, 0x02, 0x00, 0x00, 0x00, 0x01, 0x00, 0x00, 0x00,
  0x04, 0x00, 0x00, 0x00, 0xea, 0xeb, 0xff, 0xff, 0x00, 0x00, 0x00, 0x01,
  0x18, 0x00, 0x00, 0x00, 0x20, 0x00, 0x00, 0x00, 0x40, 0x00, 0x00, 0x00,
  0x10, 0x00, 0x00, 0x00, 0x00, 0x00, 0x00, 0x09, 0x98, 0x00, 0x00, 0x00,
  0x02, 0x00, 0x00, 0x00, 0xff, 0xff, 0xff, 0xff, 0x40, 0x00, 0x00, 0x00,
  0xcc, 0xeb, 0xff, 0xff, 0x08, 0x00, 0x00, 0x00, 0x14, 0x00, 0x00, 0x00,
  0x01, 0x00, 0x00, 0x00, 0x80, 0xff, 0xff, 0xff, 0xff, 0xff, 0xff, 0xff,
  0x00, 0x00, 0x00, 0x00, 0x01, 0x00, 0x00, 0x00, 0x25, 0x8f, 0xa9, 0x3c,
  0x5e, 0x00, 0x00, 0x00, 0x6d, 0x66, 0x63, 0x63, 0x5f, 0x63, 0x6e, 0x6e,
  0x5f, 0x6c, 0x69, 0x67, 0x68, 0x74, 0x5f, 0x31, 0x2f, 0x64, 0x65, 0x6e,
  0x73, 0x65, 0x5f, 0x31, 0x2f, 0x4d, 0x61, 0x74, 0x4d, 0x75, 0x6c, 0x3b,
  0x6d, 0x66, 0x63, 0x63, 0x5f, 0x63, 0x6e, 0x6e, 0x5f, 0x6c, 0x69, 0x67,
  0x68, 0x74, 0x5f, 0x31, 0x2f, 0x64, 0x65, 0x6e, 0x73, 0x65, 0x5f, 0x31,
  0x2f, 0x52, 0x65, 0x6c, 0x75, 0x3b, 0x6d, 0x66, 0x63, 0x63, 0x5f, 0x63,
  0x6e, 0x6e, 0x5f, 0x6c, 0x69, 0x67, 0x68, 0x74, 0x5f, 0x31, 0x2f, 0x64,
  0x65, 0x6e, 0x73, 0x65, 0x5f, 0x31, 0x2f, 0x42, 0x69, 0x61, 0x73, 0x41,
  0x64, 0x64, 0x00, 0x00, 0x02, 0x00, 0x00, 0x00, 0x01, 0x00, 0x00, 0x00,
  0x40, 0x00, 0x00, 0x00, 0xaa, 0xec, 0xff, 0xff, 0x00, 0x00, 0x00, 0x01,
  0x18, 0x00, 0x00, 0x00, 0x20, 0x00, 0x00, 0x00, 0x3c, 0x00, 0x00, 0x00,
  0x0f, 0x00, 0x00, 0x00, 0x00, 0x00, 0x00, 0x09, 0x68, 0x00, 0x00, 0x00,
  0x02, 0x00, 0x00, 0x00, 0xff, 0xff, 0xff, 0xff, 0x20, 0x00, 0x00, 0x00,
  0x8c, 0xec, 0xff, 0xff, 0x08, 0x00, 0x00, 0x00, 0x10, 0x00, 0x00, 0x00,
  0x01, 0x00, 0x00, 0x00, 0x80, 0xff, 0xff, 0xff, 0xff, 0xff, 0xff, 0xff,
  0x01, 0x00, 0x00, 0x00, 0x93, 0xab, 0xa5, 0x3c, 0x30, 0x00, 0x00, 0x00,
  0x6d, 0x66, 0x63, 0x63, 0x5f, 0x63, 0x6e, 0x6e, 0x5f, 0x6c, 0x69, 0x67,
  0x68, 0x74, 0x5f, 0x31, 0x2f, 0x67, 0x6c, 0x6f, 0x62, 0x61, 0x6c, 0x5f,
  0x61, 0x76, 0x65, 0x72, 0x61, 0x67, 0x65, 0x5f, 0x70, 0x6f, 0x6f, 0x6c,
  0x69, 0x6e, 0x67, 0x32, 0x64, 0x5f, 0x31, 0x2f, 0x4d, 0x65, 0x61, 0x6e,
  0x00, 0x00, 0x00, 0x00, 0x02, 0x00, 0x00, 0x00, 0x01, 0x00, 0x00, 0x00,
  0x20, 0x00, 0x00, 0x00, 0x3a, 0xed, 0xff, 0xff, 0x00, 0x00, 0x00, 0x01,
  0x18, 0x00, 0x00, 0x00, 0x28, 0x00, 0x00, 0x00, 0x48, 0x00, 0x00, 0x00,
  0x0e, 0x00, 0x00, 0x00, 0x00, 0x00, 0x00, 0x09, 0x70, 0x00, 0x00, 0x00,
  0x04, 0x00, 0x00, 0x00, 0xff, 0xff, 0xff, 0xff, 0x03, 0x00, 0x00, 0x00,
  0x1f, 0x00, 0x00, 0x00, 0x20, 0x00, 0x00, 0x00, 0x24, 0xed, 0xff, 0xff,
  0x08, 0x00, 0x00, 0x00, 0x14, 0x00, 0x00, 0x00, 0x01, 0x00, 0x00, 0x00,
  0x80, 0xff, 0xff, 0xff, 0xff, 0xff, 0xff, 0xff, 0x00, 0x00, 0x00, 0x00,
  0x01, 0x00, 0x00, 0x00, 0x82, 0x37, 0x6c, 0x3d, 0x2c, 0x00, 0x00, 0x00,
  0x6d, 0x66, 0x63, 0x63, 0x5f, 0x63, 0x6e, 0x6e, 0x5f, 0x6c, 0x69, 0x67,
  0x68, 0x74, 0x5f, 0x31, 0x2f, 0x6d, 0x61, 0x78, 0x5f, 0x70, 0x6f, 0x6f,
  0x6c, 0x69, 0x6e, 0x67, 0x32, 0x64, 0x5f, 0x31, 0x5f, 0x32, 0x2f, 0x4d,
  0x61, 0x78, 0x50, 0x6f, 0x6f, 0x6c, 0x32, 0x64, 0x00, 0x00, 0x00, 0x00,
  0x04, 0x00, 0x00, 0x00, 0x01, 0x00, 0x00, 0x00, 0x03, 0x00, 0x00, 0x00,
  0x1f, 0x00, 0x00, 0x00, 0x20, 0x00, 0x00, 0x00, 0xda, 0xed, 0xff, 0xff,
  0x00, 0x00, 0x00, 0x01, 0x18, 0x00, 0x00, 0x00, 0x28, 0x00, 0x00, 0x00,
  0x48, 0x00, 0x00, 0x00, 0x0d, 0x00, 0x00, 0x00, 0x00, 0x00, 0x00, 0x09,
  0xb8, 0x01, 0x00, 0x00, 0x04, 0x00, 0x00, 0x00, 0xff, 0xff, 0xff, 0xff,
  0x06, 0x00, 0x00, 0x00, 0x3f, 0x00, 0x00, 0x00, 0x20, 0x00, 0x00, 0x00,
  0xc4, 0xed, 0xff, 0xff, 0x08, 0x00, 0x00, 0x00, 0x14, 0x00, 0x00, 0x00,
  0x01, 0x00, 0x00, 0x00, 0x80, 0xff, 0xff, 0xff, 0xff, 0xff, 0xff, 0xff,
  0x00, 0x00, 0x00, 0x00, 0x01, 0x00, 0x00, 0x00, 0x82, 0x37, 0x6c, 0x3d,
  0x74, 0x01, 0x00, 0x00, 0x6d, 0x66, 0x63, 0x63, 0x5f, 0x63, 0x6e, 0x6e,
  0x5f, 0x6c, 0x69, 0x67, 0x68, 0x74, 0x5f, 0x31, 0x2f, 0x61, 0x63, 0x74,
  0x69, 0x76, 0x61, 0x74, 0x69, 0x6f, 0x6e, 0x5f, 0x31, 0x5f, 0x32, 0x2f,
  0x52, 0x65, 0x6c, 0x75, 0x3b, 0x6d, 0x66, 0x63, 0x63, 0x5f, 0x63, 0x6e,
  0x6e, 0x5f, 0x6c, 0x69, 0x67, 0x68, 0x74, 0x5f, 0x31, 0x2f, 0x62, 0x61,
  0x74, 0x63, 0x68, 0x5f, 0x6e, 0x6f, 0x72, 0x6d, 0x61, 0x6c, 0x69, 0x7a,
  0x61, 0x74, 0x69, 0x6f, 0x6e, 0x5f, 0x31, 0x5f, 0x32, 0x2f, 0x62, 0x61,
  0x74, 0x63, 0x68, 0x6e, 0x6f, 0x72, 0x6d, 0x2f, 0x61, 0x64, 0x64, 0x5f,
  0x31, 0x3b, 0x6d, 0x66, 0x63, 0x63, 0x5f, 0x63, 0x6e, 0x6e, 0x5f, 0x6c,
  0x69, 0x67, 0x68, 0x74, 0x5f, 0x31, 0x2f, 0x62, 0x61, 0x74, 0x63, 0x68,
  0x5f, 0x6e, 0x6f, 0x72, 0x6d, 0x61, 0x6c, 0x69, 0x7a, 0x61, 0x74, 0x69,
  0x6f, 0x6e, 0x5f, 0x31, 0x5f, 0x32, 0x2f, 0x62, 0x61, 0x74, 0x63, 0x68,
  0x6e, 0x6f, 0x72, 0x6d, 0x2f, 0x6d, 0x75, 0x6c, 0x5f, 0x31, 0x3b, 0x6d,
  0x66, 0x63, 0x63, 0x5f, 0x63, 0x6e, 0x6e, 0x5f, 0x6c, 0x69, 0x67, 0x68,
  0x74, 0x5f, 0x31, 0x2f, 0x63, 0x6f, 0x6e, 0x76, 0x32, 0x64, 0x5f, 0x31,
  0x5f, 0x32, 0x2f, 0x53, 0x71, 0x75, 0x65, 0x65, 0x7a, 0x65, 0x3b, 0x6d,
  0x66, 0x63, 0x63, 0x5f, 0x63, 0x6e, 0x6e, 0x5f, 0x6c, 0x69, 0x67, 0x68,
  0x74, 0x5f, 0x31, 0x2f, 0x63, 0x6f, 0x6e, 0x76, 0x32, 0x64, 0x5f, 0x31,
  0x5f, 0x32, 0x2f, 0x42, 0x69, 0x61, 0x73, 0x41, 0x64, 0x64, 0x3b, 0x6d,
  0x66, 0x63, 0x63, 0x5f, 0x63, 0x6e, 0x6e, 0x5f, 0x6c, 0x69, 0x67, 0x68,
  0x74, 0x5f, 0x31, 0x2f, 0x62, 0x61, 0x74, 0x63, 0x68, 0x5f, 0x6e, 0x6f,
  0x72, 0x6d, 0x61, 0x6c, 0x69, 0x7a, 0x61, 0x74, 0x69, 0x6f, 0x6e, 0x5f,
  0x31, 0x5f, 0x32, 0x2f, 0x62, 0x61, 0x74, 0x63, 0x68, 0x6e, 0x6f, 0x72,
  0x6d, 0x2f, 0x6d, 0x75, 0x6c, 0x3b, 0x6d, 0x66, 0x63, 0x63, 0x5f, 0x63,
  0x6e, 0x6e, 0x5f, 0x6c, 0x69, 0x67, 0x68, 0x74, 0x5f, 0x31, 0x2f, 0x63,
  0x6f, 0x6e, 0x76, 0x32, 0x64, 0x5f, 0x31, 0x5f, 0x32, 0x2f, 0x63, 0x6f,
  0x6e, 0x76, 0x6f, 0x6c, 0x75, 0x74, 0x69, 0x6f, 0x6e, 0x3b, 0x6d, 0x66,
  0x63, 0x63, 0x5f, 0x63, 0x6e, 0x6e, 0x5f, 0x6c, 0x69, 0x67, 0x68, 0x74,
  0x5f, 0x31, 0x2f, 0x62, 0x61, 0x74, 0x63, 0x68, 0x5f, 0x6e, 0x6f, 0x72,
  0x6d, 0x61, 0x6c, 0x69, 0x7a, 0x61, 0x74, 0x69, 0x6f, 0x6e, 0x5f, 0x31,
  0x5f, 0x32, 0x2f, 0x62, 0x61, 0x74, 0x63, 0x68, 0x6e, 0x6f, 0x72, 0x6d,
  0x2f, 0x73, 0x75, 0x62, 0x00, 0x00, 0x00, 0x00, 0x04, 0x00, 0x00, 0x00,
  0x01, 0x00, 0x00, 0x00, 0x06, 0x00, 0x00, 0x00, 0x3f, 0x00, 0x00, 0x00,
  0x20, 0x00, 0x00, 0x00, 0xc2, 0xef, 0xff, 0xff, 0x00, 0x00, 0x00, 0x01,
  0x18, 0x00, 0x00, 0x00, 0x28, 0x00, 0x00, 0x00, 0x44, 0x00, 0x00, 0x00,
  0x0c, 0x00, 0x00, 0x00, 0x00, 0x00, 0x00, 0x09, 0x68, 0x00, 0x00, 0x00,
  0x04, 0x00, 0x00, 0x00, 0xff, 0xff, 0xff, 0xff, 0x06, 0x00, 0x00, 0x00,
  0x3f, 0x00, 0x00, 0x00, 0x10, 0x00, 0x00, 0x00, 0xac, 0xef, 0xff, 0xff,
  0x08, 0x00, 0x00, 0x00, 0x10, 0x00, 0x00, 0x00, 0x01, 0x00, 0x00, 0x00,
  0x80, 0xff, 0xff, 0xff, 0xff, 0xff, 0xff, 0xff, 0x01, 0x00, 0x00, 0x00,
  0xdc, 0x8f, 0x26, 0x3d, 0x2a, 0x00, 0x00, 0x00, 0x6d, 0x66, 0x63, 0x63,
  0x5f, 0x63, 0x6e, 0x6e, 0x5f, 0x6c, 0x69, 0x67, 0x68, 0x74, 0x5f, 0x31,
  0x2f, 0x6d, 0x61, 0x78, 0x5f, 0x70, 0x6f, 0x6f, 0x6c, 0x69, 0x6e, 0x67,
  0x32, 0x64, 0x5f, 0x31, 0x2f, 0x4d, 0x61, 0x78, 0x50, 0x6f, 0x6f, 0x6c,
  0x32, 0x64, 0x00, 0x00, 0x04, 0x00, 0x00, 0x00, 0x01, 0x00, 0x00, 0x00,
  0x06, 0x00, 0x00, 0x00, 0x3f, 0x00, 0x00, 0x00, 0x10, 0x00, 0x00, 0x00,
  0x5a, 0xf0, 0xff, 0xff, 0x00, 0x00, 0x00, 0x01, 0x18, 0x00, 0x00, 0x00,
  0x28, 0x00, 0x00, 0x00, 0x48, 0x00, 0x00, 0x00, 0x0b, 0x00, 0x00, 0x00,
  0x00, 0x00, 0x00, 0x09, 0x88, 0x01, 0x00, 0x00, 0x04, 0x00, 0x00, 0x00,
  0xff, 0xff, 0xff, 0xff, 0x0d, 0x00, 0x00, 0x00, 0x7e, 0x00, 0x00, 0x00,
  0x10, 0x00, 0x00, 0x00, 0x44, 0xf0, 0xff, 0xff, 0x08, 0x00, 0x00, 0x00,
  0x14, 0x00, 0x00, 0x00, 0x01, 0x00, 0x00, 0x00, 0x80, 0xff, 0xff, 0xff,
  0xff, 0xff, 0xff, 0xff, 0x00, 0x00, 0x00, 0x00, 0x01, 0x00, 0x00, 0x00,
  0xdc, 0x8f, 0x26, 0x3d, 0x44, 0x01, 0x00, 0x00, 0x6d, 0x66, 0x63, 0x63,
  0x5f, 0x63, 0x6e, 0x6e, 0x5f, 0x6c, 0x69, 0x67, 0x68, 0x74, 0x5f, 0x31,
  0x2f, 0x61, 0x63, 0x74, 0x69, 0x76, 0x61, 0x74, 0x69, 0x6f, 0x6e, 0x5f,
  0x31, 0x2f, 0x52, 0x65, 0x6c, 0x75, 0x3b, 0x6d, 0x66, 0x63, 0x63, 0x5f,
  0x63, 0x6e, 0x6e, 0x5f, 0x6c, 0x69, 0x67, 0x68, 0x74, 0x5f, 0x31, 0x2f,
  0x62, 0x61, 0x74, 0x63, 0x68, 0x5f, 0x6e, 0x6f, 0x72, 0x6d, 0x61, 0x6c,
  0x69, 0x7a, 0x61, 0x74, 0x69, 0x6f, 0x6e, 0x5f, 0x31, 0x2f, 0x62, 0x61,
  0x74, 0x63, 0x68, 0x6e, 0x6f, 0x72, 0x6d, 0x2f, 0x61, 0x64, 0x64, 0x5f,
  0x31, 0x3b, 0x6d, 0x66, 0x63, 0x63, 0x5f, 0x63, 0x6e, 0x6e, 0x5f, 0x6c,
  0x69, 0x67, 0x68, 0x74, 0x5f, 0x31, 0x2f, 0x62, 0x61, 0x74, 0x63, 0x68,
  0x5f, 0x6e, 0x6f, 0x72, 0x6d, 0x61, 0x6c, 0x69, 0x7a, 0x61, 0x74, 0x69,
  0x6f, 0x6e, 0x5f, 0x31, 0x2f, 0x62, 0x61, 0x74, 0x63, 0x68, 0x6e, 0x6f,
  0x72, 0x6d, 0x2f, 0x6d, 0x75, 0x6c, 0x5f, 0x31, 0x3b, 0x3b, 0x6d, 0x66,
  0x63, 0x63, 0x5f, 0x63, 0x6e, 0x6e, 0x5f, 0x6c, 0x69, 0x67, 0x68, 0x74,
  0x5f, 0x31, 0x2f, 0x63, 0x6f, 0x6e, 0x76, 0x32, 0x64, 0x5f, 0x31, 0x2f,
  0x42, 0x69, 0x61, 0x73, 0x41, 0x64, 0x64, 0x3b, 0x6d, 0x66, 0x63, 0x63,
  0x5f, 0x63, 0x6e, 0x6e, 0x5f, 0x6c, 0x69, 0x67, 0x68, 0x74, 0x5f, 0x31,
  0x2f, 0x62, 0x61, 0x74, 0x63, 0x68, 0x5f, 0x6e, 0x6f, 0x72, 0x6d, 0x61,
  0x6c, 0x69, 0x7a, 0x61, 0x74, 0x69, 0x6f, 0x6e, 0x5f, 0x31, 0x2f, 0x62,
  0x61, 0x74, 0x63, 0x68, 0x6e, 0x6f, 0x72, 0x6d, 0x2f, 0x6d, 0x75, 0x6c,
  0x3b, 0x6d, 0x66, 0x63, 0x63, 0x5f, 0x63, 0x6e, 0x6e, 0x5f, 0x6c, 0x69,
  0x67, 0x68, 0x74, 0x5f, 0x31, 0x2f, 0x63, 0x6f, 0x6e, 0x76, 0x32, 0x64,
  0x5f, 0x31, 0x2f, 0x63, 0x6f, 0x6e, 0x76, 0x6f, 0x6c, 0x75, 0x74, 0x69,
  0x6f, 0x6e, 0x3b, 0x6d, 0x66, 0x63, 0x63, 0x5f, 0x63, 0x6e, 0x6e, 0x5f,
  0x6c, 0x69, 0x67, 0x68, 0x74, 0x5f, 0x31, 0x2f, 0x62, 0x61, 0x74, 0x63,
  0x68, 0x5f, 0x6e, 0x6f, 0x72, 0x6d, 0x61, 0x6c, 0x69, 0x7a, 0x61, 0x74,
  0x69, 0x6f, 0x6e, 0x5f, 0x31, 0x2f, 0x62, 0x61, 0x74, 0x63, 0x68, 0x6e,
  0x6f, 0x72, 0x6d, 0x2f, 0x73, 0x75, 0x62, 0x31, 0x00, 0x00, 0x00, 0x00,
  0x04, 0x00, 0x00, 0x00, 0x01, 0x00, 0x00, 0x00, 0x0d, 0x00, 0x00, 0x00,
  0x7e, 0x00, 0x00, 0x00, 0x10, 0x00, 0x00, 0x00, 0x6a, 0xf2, 0xff, 0xff,
  0x00, 0x00, 0x00, 0x01, 0x14, 0x00, 0x00, 0x00, 0xe8, 0x00, 0x00, 0x00,
  0x0a, 0x00, 0x00, 0x00, 0x00, 0x00, 0x00, 0x09, 0xf4, 0x00, 0x00, 0x00,
  0xe4, 0xf1, 0xff, 0xff, 0x08, 0x00, 0x00, 0x00, 0x8c, 0x00, 0x00, 0x00,
  0x10, 0x00, 0x00, 0x00, 0x00, 0x00, 0x00, 0x00, 0x00, 0x00, 0x00, 0x00,
  0x00, 0x00, 0x00, 0x00, 0x00, 0x00, 0x00, 0x00, 0x00, 0x00, 0x00, 0x00,
  0x00, 0x00, 0x00, 0x00, 0x00, 0x00, 0x00, 0x00, 0x00, 0x00, 0x00, 0x00,
  0x00, 0x00, 0x00, 0x00, 0x00, 0x00, 0x00, 0x00, 0x00, 0x00, 0x00, 0x00,
  0x00, 0x00, 0x00, 0x00, 0x00, 0x00, 0x00, 0x00, 0x00, 0x00, 0x00, 0x00,
  0x00, 0x00, 0x00, 0x00, 0x00, 0x00, 0x00, 0x00, 0x00, 0x00, 0x00, 0x00,
  0x00, 0x00, 0x00, 0x00, 0x00, 0x00, 0x00, 0x00, 0x00, 0x00, 0x00, 0x00,
  0x00, 0x00, 0x00, 0x00, 0x00, 0x00, 0x00, 0x00, 0x00, 0x00, 0x00, 0x00,
  0x00, 0x00, 0x00, 0x00, 0x00, 0x00, 0x00, 0x00, 0x00, 0x00, 0x00, 0x00,
  0x00, 0x00, 0x00, 0x00, 0x00, 0x00, 0x00, 0x00, 0x00, 0x00, 0x00, 0x00,
  0x00, 0x00, 0x00, 0x00, 0x00, 0x00, 0x00, 0x00, 0x00, 0x00, 0x00, 0x00,
  0x00, 0x00, 0x00, 0x00, 0x10, 0x00, 0x00, 0x00, 0x47, 0x92, 0x74, 0x3b,
  0xb3, 0xbd, 0xaf, 0x3b, 0x3a, 0x90, 0x73, 0x3b, 0xa5, 0xa8, 0x84, 0x3b,
  0x9c, 0x7e, 0x38, 0x3b, 0x26, 0x1d, 0x53, 0x3b, 0x0c, 0xa8, 0xab, 0x3b,
  0x46, 0xbe, 0x93, 0x3b, 0x74, 0x6c, 0xb7, 0x3b, 0xb9, 0x8e, 0xbb, 0x3b,
  0x56, 0xae, 0x4d, 0x3b, 0x67, 0xb5, 0xa2, 0x3b, 0x87, 0xb6, 0x68, 0x3b,
  0x53, 0x47, 0xae, 0x3b, 0xc4, 0xc9, 0x69, 0x3b, 0xdc, 0x37, 0x5a, 0x3b,
  0x12, 0x00, 0x00, 0x00, 0x74, 0x66, 0x6c, 0x2e, 0x70, 0x73, 0x65, 0x75,
  0x64, 0x6f, 0x5f, 0x71, 0x63, 0x6f, 0x6e, 0x73, 0x74, 0x37, 0x00, 0x00,
  0x04, 0x00, 0x00, 0x00, 0x10, 0x00, 0x00, 0x00, 0x03, 0x00, 0x00, 0x00,
  0x03, 0x00, 0x00, 0x00, 0x01, 0x00, 0x00, 0x00, 0x8a, 0xf3, 0xff, 0xff,
  0x00, 0x00, 0x00, 0x01, 0x14, 0x00, 0x00, 0x00, 0xe4, 0x00, 0x00, 0x00,
  0x09, 0x00, 0x00, 0x00, 0x00, 0x00, 0x00, 0x02, 0xf0, 0x00, 0x00, 0x00,
  0x04, 0xf3, 0xff, 0xff, 0x08, 0x00, 0x00, 0x00, 0x88, 0x00, 0x00, 0x00,
  0x10, 0x00, 0x00, 0x00, 0x00, 0x00, 0x00, 0x00, 0x00, 0x00, 0x00, 0x00,
  0x00, 0x00, 0x00, 0x00, 0x00, 0x00, 0x00, 0x00, 0x00, 0x00, 0x00, 0x00,
  0x00, 0x00, 0x00, 0x00, 0x00, 0x00, 0x00, 0x00, 0x00, 0x00, 0x00, 0x00,
  0x00, 0x00, 0x00, 0x00, 0x00, 0x00, 0x00, 0x00, 0x00, 0x00, 0x00, 0x00,
  0x00, 0x00, 0x00, 0x00, 0x00, 0x00, 0x00, 0x00, 0x00, 0x00, 0x00, 0x00,
  0x00, 0x00, 0x00, 0x00, 0x00, 0x00, 0x00, 0x00, 0x00, 0x00, 0x00, 0x00,
  0x00, 0x00, 0x00, 0x00, 0x00, 0x00, 0x00, 0x00, 0x00, 0x00, 0x00, 0x00,
  0x00, 0x00, 0x00, 0x00, 0x00, 0x00, 0x00, 0x00, 0x00, 0x00, 0x00, 0x00,
  0x00, 0x00, 0x00, 0x00, 0x00, 0x00, 0x00, 0x00, 0x00, 0x00, 0x00, 0x00,
  0x00, 0x00, 0x00, 0x00, 0x00, 0x00, 0x00, 0x00, 0x00, 0x00, 0x00, 0x00,
  0x00, 0x00, 0x00, 0x00, 0x00, 0x00, 0x00, 0x00, 0x00, 0x00, 0x00, 0x00,
  0x10, 0x00, 0x00, 0x00, 0xd7, 0x7b, 0x66, 0x39, 0x3b, 0x9e, 0xa5, 0x39,
  0xa7, 0x88, 0x65, 0x39, 0xee, 0x08, 0x7a, 0x39, 0x0f, 0xde, 0x2d, 0x39,
  0x13, 0xf4, 0x46, 0x39, 0xcf, 0xc4, 0xa1, 0x39, 0xa8, 0x3b, 0x8b, 0x39,
  0xb2, 0xdb, 0xac, 0x39, 0x02, 0xc1, 0xb0, 0x39, 0x5f, 0xd5, 0x41, 0x39,
  0x1c, 0x56, 0x99, 0x39, 0xf4, 0x4e, 0x5b, 0x39, 0x6b, 0x3d, 0xa4, 0x39,
  0x56, 0x52, 0x5c, 0x39, 0x06, 0xa6, 0x4d, 0x39, 0x12, 0x00, 0x00, 0x00,
  0x74, 0x66, 0x6c, 0x2e, 0x70, 0x73, 0x65, 0x75, 0x64, 0x6f, 0x5f, 0x71,
  0x63, 0x6f, 0x6e, 0x73, 0x74, 0x36, 0x00, 0x00, 0x01, 0x00, 0x00, 0x00,
  0x10, 0x00, 0x00, 0x00, 0x9a, 0xf4, 0xff, 0xff, 0x00, 0x00, 0x00, 0x01,
  0x14, 0x00, 0x00, 0x00, 0xa8, 0x01, 0x00, 0x00, 0x08, 0x00, 0x00, 0x00,
  0x00, 0x00, 0x00, 0x09, 0xb4, 0x01, 0x00, 0x00, 0x14, 0xf4, 0xff, 0xff,
  0x08, 0x00, 0x00, 0x00, 0x0c, 0x01, 0x00, 0x00, 0x20, 0x00, 0x00, 0x00,
  0x00, 0x00, 0x00, 0x00, 0x00, 0x00, 0x00, 0x00, 0x00, 0x00, 0x00, 0x00,
  0x00, 0x00, 0x00, 0x00, 0x00, 0x00, 0x00, 0x00, 0x00, 0x00, 0x00, 0x00,
  0x00, 0x00, 0x00, 0x00, 0x00, 0x00, 0x00, 0x00, 0x00, 0x00, 0x00, 0x00,
  0x00, 0x00, 0x00, 0x00, 0x00, 0x00, 0x00, 0x00, 0x00, 0x00, 0x00, 0x00,
  0x00, 0x00, 0x00, 0x00, 0x00, 0x00, 0x00, 0x00, 0x00, 0x00, 0x00, 0x00,
  0x00, 0x00, 0x00, 0x00, 0x00, 0x00, 0x00, 0x00, 0x00, 0x00, 0x00, 0x00,
  0x00, 0x00, 0x00, 0x00, 0x00, 0x00, 0x00, 0x00, 0x00, 0x00, 0x00, 0x00,
  0x00, 0x00, 0x00, 0x00, 0x00, 0x00, 0x00, 0x00, 0x00, 0x00, 0x00, 0x00,
  0x00, 0x00, 0x00, 0x00, 0x00, 0x00, 0x00, 0x00, 0x00, 0x00, 0x00, 0x00,
  0x00, 0x00, 0x00, 0x00, 0x00, 0x00, 0x00, 0x00, 0x00, 0x00, 0x00, 0x00,
  0x00, 0x00, 0x00, 0x00, 0x00, 0x00, 0x00, 0x00, 0x00, 0x00, 0x00, 0x00,
  0x00, 0x00, 0x00, 0x00, 0x00, 0x00, 0x00, 0x00, 0x00, 0x00, 0x00, 0x00,
  0x00, 0x00, 0x00, 0x00, 0x00, 0x00, 0x00, 0x00, 0x00, 0x00, 0x00, 0x00,
  0x00, 0x00, 0x00, 0x00, 0x00, 0x00, 0x00, 0x00, 0x00, 0x00, 0x00, 0x00,
  0x00, 0x00, 0x00, 0x00, 0x00, 0x00, 0x00, 0x00, 0x00, 0x00, 0x00, 0x00,
  0x00, 0x00, 0x00, 0x00, 0x00, 0x00, 0x00, 0x00, 0x00, 0x00, 0x00, 0x00,
  0x00, 0x00, 0x00, 0x00, 0x00, 0x00, 0x00, 0x00, 0x00, 0x00, 0x00, 0x00,
  0x00, 0x00, 0x00, 0x00, 0x00, 0x00, 0x00, 0x00, 0x00, 0x00, 0x00, 0x00,
  0x00, 0x00, 0x00, 0x00, 0x00, 0x00, 0x00, 0x00, 0x00, 0x00, 0x00, 0x00,
  0x00, 0x00, 0x00, 0x00, 0x00, 0x00, 0x00, 0x00, 0x00, 0x00, 0x00, 0x00,
  0x00, 0x00, 0x00, 0x00, 0x00, 0x00, 0x00, 0x00, 0x00, 0x00, 0x00, 0x00,
  0x00, 0x00, 0x00, 0x00, 0x00, 0x00, 0x00, 0x00, 0x20, 0x00, 0x00, 0x00,
  0xf6, 0x45, 0x02, 0x3b, 0x1f, 0x4e, 0x43, 0x3a, 0x22, 0x3c, 0xeb, 0x3a,
  0xef, 0xa4, 0xcf, 0x3a, 0x87, 0x67, 0xd2, 0x3a, 0xd6, 0x6f, 0xbc, 0x3a,
  0xa2, 0x12, 0xd0, 0x3a, 0x41, 0x83, 0xcf, 0x3a, 0xe9, 0x66, 0x8c, 0x3a,
  0xe7, 0xe8, 0xb0, 0x3a, 0x3a, 0x7a, 0x16, 0x3b, 0xb0, 0xf3, 0x04, 0x3b,
  0xb9, 0xa3, 0xd5, 0x3a, 0x4e, 0x64, 0x07, 0x3b, 0x3b, 0x19, 0xaf, 0x3a,
  0xd1, 0x62, 0xa7, 0x3a, 0x7b, 0x5d, 0xb5, 0x3a, 0xf5, 0x9a, 0xb9, 0x3a,
  0xb9, 0x38, 0xc5, 0x3a, 0xbc, 0x7a, 0x07, 0x3b, 0xc2, 0x99, 0xde, 0x3a,
  0x35, 0xd8, 0xe9, 0x3a, 0xbd, 0x75, 0xbd, 0x3a, 0xfc, 0xdb, 0x8e, 0x3a,
  0x4e, 0x89, 0xc6, 0x3a, 0x6f, 0x84, 0x88, 0x3a, 0x54, 0x07, 0xf4, 0x3a,
  0xcb, 0xdc, 0x06, 0x3b, 0xde, 0x7c, 0x1a, 0x3b, 0x97, 0xe8, 0x8b, 0x3a,
  0x4d, 0x24, 0x99, 0x3a, 0x35, 0xb7, 0xf3, 0x3a, 0x12, 0x00, 0x00, 0x00,
  0x74, 0x66, 0x6c, 0x2e, 0x70, 0x73, 0x65, 0x75, 0x64, 0x6f, 0x5f, 0x71,
  0x63, 0x6f, 0x6e, 0x73, 0x74, 0x35, 0x00, 0x00, 0x04, 0x00, 0x00, 0x00,
  0x20, 0x00, 0x00, 0x00, 0x03, 0x00, 0x00, 0x00, 0x03, 0x00, 0x00, 0x00,
  0x10, 0x00, 0x00, 0x00, 0x7a, 0xf6, 0xff, 0xff, 0x00, 0x00, 0x00, 0x01,
  0x14, 0x00, 0x00, 0x00, 0xa4, 0x01, 0x00, 0x00, 0x07, 0x00, 0x00, 0x00,
  0x00, 0x00, 0x00, 0x02, 0xb0, 0x01, 0x00, 0x00, 0xf4, 0xf5, 0xff, 0xff,
  0x08, 0x00, 0x00, 0x00, 0x08, 0x01, 0x00, 0x00, 0x20, 0x00, 0x00, 0x00,
  0x00, 0x00, 0x00, 0x00, 0x00, 0x00, 0x00, 0x00, 0x00, 0x00, 0x00, 0x00,
  0x00, 0x00, 0x00, 0x00, 0x00, 0x00, 0x00, 0x00, 0x00, 0x00, 0x00, 0x00,
  0x00, 0x00, 0x00, 0x00, 0x00, 0x00, 0x00, 0x00, 0x00, 0x00, 0x00, 0x00,
  0x00, 0x00, 0x00, 0x00, 0x00, 0x00, 0x00, 0x00, 0x00, 0x00, 0x00, 0x00,
  0x00, 0x00, 0x00, 0x00, 0x00, 0x00, 0x00, 0x00, 0x00, 0x00, 0x00, 0x00,
  0x00, 0x00, 0x00, 0x00, 0x00, 0x00, 0x00, 0x00, 0x00, 0x00, 0x00, 0x00,
  0x00, 0x00, 0x00, 0x00, 0x00, 0x00, 0x00, 0x00, 0x00, 0x00, 0x00, 0x00,
  0x00, 0x00, 0x00, 0x00, 0x00, 0x00, 0x00, 0x00, 0x00, 0x00, 0x00, 0x00,
  0x00, 0x00, 0x00, 0x00, 0x00, 0x00, 0x00, 0x00, 0x00, 0x00, 0x00, 0x00,
  0x00, 0x00, 0x00, 0x00, 0x00, 0x00, 0x00, 0x00, 0x00, 0x00, 0x00, 0x00,
  0x00, 0x00, 0x00, 0x00, 0x00, 0x00, 0x00, 0x00, 0x00, 0x00, 0x00, 0x00,
  0x00, 0x00, 0x00, 0x00, 0x00, 0x00, 0x00, 0x00, 0x00, 0x00, 0x00, 0x00,
  0x00, 0x00, 0x00, 0x00, 0x00, 0x00, 0x00, 0x00, 0x00, 0x00, 0x00, 0x00,
  0x00, 0x00, 0x00, 0x00, 0x00, 0x00, 0x00, 0x00, 0x00, 0x00, 0x00, 0x00,
  0x00, 0x00, 0x00, 0x00, 0x00, 0x00, 0x00, 0x00, 0x00, 0x00, 0x00, 0x00,
  0x00, 0x00, 0x00, 0x00, 0x00, 0x00, 0x00, 0x00, 0x00, 0x00, 0x00, 0x00,
  0x00, 0x00, 0x00, 0x00, 0x00, 0x00, 0x00, 0x00, 0x00, 0x00, 0x00, 0x00,
  0x00, 0x00, 0x00, 0x00, 0x00, 0x00, 0x00, 0x00, 0x00, 0x00, 0x00, 0x00,
  0x00, 0x00, 0x00, 0x00, 0x00, 0x00, 0x00, 0x00, 0x00, 0x00, 0x00, 0x00,
  0x00, 0x00, 0x00, 0x00, 0x00, 0x00, 0x00, 0x00, 0x00, 0x00, 0x00, 0x00,
  0x00, 0x00, 0x00, 0x00, 0x00, 0x00, 0x00, 0x00, 0x00, 0x00, 0x00, 0x00,
  0x00, 0x00, 0x00, 0x00, 0x20, 0x00, 0x00, 0x00, 0x25, 0x85, 0xa9, 0x38,
  0xd1, 0x24, 0xfe, 0x37, 0x2f, 0x0d, 0x99, 0x38, 0xa3, 0x19, 0x87, 0x38,
  0x5e, 0xe5, 0x88, 0x38, 0xd2, 0x34, 0x75, 0x38, 0x02, 0x61, 0x87, 0x38,
  0xb9, 0x03, 0x87, 0x38, 0x42, 0xb3, 0x36, 0x38, 0xe0, 0x34, 0x66, 0x38,
  0xa2, 0xcf, 0xc3, 0x38, 0x75, 0x01, 0xad, 0x38, 0x38, 0x00, 0x8b, 0x38,
  0x40, 0x2e, 0xb0, 0x38, 0x84, 0xd9, 0x63, 0x38, 0x47, 0xd0, 0x59, 0x38,
  0x12, 0x01, 0x6c, 0x38, 0x90, 0x85, 0x71, 0x38, 0x9c, 0x51, 0x80, 0x38,
  0x70, 0x4b, 0xb0, 0x38, 0xcb, 0xd4, 0x90, 0x38, 0x9b, 0x25, 0x98, 0x38,
  0xa0, 0x89, 0x76, 0x38, 0xda, 0xe5, 0x39, 0x38, 0x9a, 0x2c, 0x81, 0x38,
  0x2f, 0xa5, 0x31, 0x38, 0xe2, 0xc5, 0x9e, 0x38, 0xea, 0x7d, 0xaf, 0x38,
  0x91, 0x07, 0xc9, 0x38, 0xe2, 0x0e, 0x36, 0x38, 0x32, 0x47, 0x47, 0x38,
  0xc1, 0x91, 0x9e, 0x38, 0x12, 0x00, 0x00, 0x00, 0x74, 0x66, 0x6c, 0x2e,
  0x70, 0x73, 0x65, 0x75, 0x64, 0x6f, 0x5f, 0x71, 0x63, 0x6f, 0x6e, 0x73,
  0x74, 0x34, 0x00, 0x00, 0x01, 0x00, 0x00, 0x00, 0x20, 0x00, 0x00, 0x00,
  0x4a, 0xf8, 0xff, 0xff, 0x00, 0x00, 0x00, 0x01, 0x14, 0x00, 0x00, 0x00,
  0x28, 0x03, 0x00, 0x00, 0x06, 0x00, 0x00, 0x00, 0x00, 0x00, 0x00, 0x09,
  0x34, 0x03, 0x00, 0x00, 0xc4, 0xf7, 0xff, 0xff, 0x08, 0x00, 0x00, 0x00,
  0x0c, 0x02, 0x00, 0x00, 0x40, 0x00, 0x00, 0x00, 0x00, 0x00, 0x00, 0x00,
  0x00, 0x00, 0x00, 0x00, 0x00, 0x00, 0x00, 0x00, 0x00, 0x00, 0x00, 0x00,
  0x00, 0x00, 0x00, 0x00, 0x00, 0x00, 0x00, 0x00, 0x00, 0x00, 0x00, 0x00,
  0x00, 0x00, 0x00, 0x00, 0x00, 0x00, 0x00, 0x00, 0x00, 0x00, 0x00, 0x00,
  0x00, 0x00, 0x00, 0x00, 0x00, 0x00, 0x00, 0x00, 0x00, 0x00, 0x00, 0x00,
  0x00, 0x00, 0x00, 0x00, 0x00, 0x00, 0x00, 0x00, 0x00, 0x00, 0x00, 0x00,
  0x00, 0x00, 0x00, 0x00, 0x00, 0x00, 0x00, 0x00, 0x00, 0x00, 0x00, 0x00,
  0x00, 0x00, 0x00, 0x00, 0x00, 0x00, 0x00, 0x00, 0x00, 0x00, 0x00, 0x00,
  0x00, 0x00, 0x00, 0x00, 0x00, 0x00, 0x00, 0x00, 0x00, 0x00, 0x00, 0x00,
  0x00, 0x00, 0x00, 0x00, 0x00, 0x00, 0x00, 0x00, 0x00, 0x00, 0x00, 0x00,
  0x00, 0x00, 0x00, 0x00, 0x00, 0x00, 0x00, 0x00, 0x00, 0x00, 0x00, 0x00,
  0x00, 0x00, 0x00, 0x00, 0x00, 0x00, 0x00, 0x00, 0x00, 0x00, 0x00, 0x00,
  0x00, 0x00, 0x00, 0x00, 0x00, 0x00, 0x00, 0x00, 0x00, 0x00, 0x00, 0x00,
  0x00, 0x00, 0x00, 0x00, 0x00, 0x00, 0x00, 0x00, 0x00, 0x00, 0x00, 0x00,
  0x00, 0x00, 0x00, 0x00, 0x00, 0x00, 0x00, 0x00, 0x00, 0x00, 0x00, 0x00,
  0x00, 0x00, 0x00, 0x00, 0x00, 0x00, 0x00, 0x00, 0x00, 0x00, 0x00, 0x00,
  0x00, 0x00, 0x00, 0x00, 0x00, 0x00, 0x00, 0x00, 0x00, 0x00, 0x00, 0x00,
  0x00, 0x00, 0x00, 0x00, 0x00, 0x00, 0x00, 0x00, 0x00, 0x00, 0x00, 0x00,
  0x00, 0x00, 0x00, 0x00, 0x00, 0x00, 0x00, 0x00, 0x00, 0x00, 0x00, 0x00,
  0x00, 0x00, 0x00, 0x00, 0x00, 0x00, 0x00, 0x00, 0x00, 0x00, 0x00, 0x00,
  0x00, 0x00, 0x00, 0x00, 0x00, 0x00, 0x00, 0x00, 0x00, 0x00, 0x00, 0x00,
  0x00, 0x00, 0x00, 0x00, 0x00, 0x00, 0x00, 0x00, 0x00, 0x00, 0x00, 0x00,
  0x00, 0x00, 0x00, 0x00, 0x00, 0x00, 0x00, 0x00, 0x00, 0x00, 0x00, 0x00,
  0x00, 0x00, 0x00, 0x00, 0x00, 0x00, 0x00, 0x00, 0x00, 0x00, 0x00, 0x00,
  0x00, 0x00, 0x00, 0x00, 0x00, 0x00, 0x00, 0x00, 0x00, 0x00, 0x00, 0x00,
  0x00, 0x00, 0x00, 0x00, 0x00, 0x00, 0x00, 0x00, 0x00, 0x00, 0x00, 0x00,
  0x00, 0x00, 0x00, 0x00, 0x00, 0x00, 0x00, 0x00, 0x00, 0x00, 0x00, 0x00,
  0x00, 0x00, 0x00, 0x00, 0x00, 0x00, 0x00, 0x00, 0x00, 0x00, 0x00, 0x00,
  0x00, 0x00, 0x00, 0x00, 0x00, 0x00, 0x00, 0x00, 0x00, 0x00, 0x00, 0x00,
  0x00, 0x00, 0x00, 0x00, 0x00, 0x00, 0x00, 0x00, 0x00, 0x00, 0x00, 0x00,
  0x00, 0x00, 0x00, 0x00, 0x00, 0x00, 0x00, 0x00, 0x00, 0x00, 0x00, 0x00,
  0x00, 0x00, 0x00, 0x00, 0x00, 0x00, 0x00, 0x00, 0x00, 0x00, 0x00, 0x00,
  0x00, 0x00, 0x00, 0x00, 0x00, 0x00, 0x00, 0x00, 0x00, 0x00, 0x00, 0x00,
  0x00, 0x00, 0x00, 0x00, 0x00, 0x00, 0x00, 0x00, 0x00, 0x00, 0x00, 0x00,
  0x00, 0x00, 0x00, 0x00, 0x00, 0x00, 0x00, 0x00, 0x00, 0x00, 0x00, 0x00,
  0x00, 0x00, 0x00, 0x00, 0x00, 0x00, 0x00, 0x00, 0x00, 0x00, 0x00, 0x00,
  0x00, 0x00, 0x00, 0x00, 0x00, 0x00, 0x00, 0x00, 0x00, 0x00, 0x00, 0x00,
  0x00, 0x00, 0x00, 0x00, 0x00, 0x00, 0x00, 0x00, 0x00, 0x00, 0x00, 0x00,
  0x00, 0x00, 0x00, 0x00, 0x00, 0x00, 0x00, 0x00, 0x00, 0x00, 0x00, 0x00,
  0x00, 0x00, 0x00, 0x00, 0x00, 0x00, 0x00, 0x00, 0x00, 0x00, 0x00, 0x00,
  0x00, 0x00, 0x00, 0x00, 0x00, 0x00, 0x00, 0x00, 0x00, 0x00, 0x00, 0x00,
  0x00, 0x00, 0x00, 0x00, 0x00, 0x00, 0x00, 0x00, 0x00, 0x00, 0x00, 0x00,
  0x00, 0x00, 0x00, 0x00, 0x00, 0x00, 0x00, 0x00, 0x00, 0x00, 0x00, 0x00,
  0x00, 0x00, 0x00, 0x00, 0x00, 0x00, 0x00, 0x00, 0x40, 0x00, 0x00, 0x00,
  0x57, 0x5f, 0x2f, 0x38, 0x69, 0x5a, 0xf7, 0x37, 0x42, 0xc1, 0x23, 0x37,
  0xd4, 0x48, 0xa1, 0x3a, 0x08, 0x5c, 0x43, 0x38, 0xce, 0xc3, 0x0f, 0x3a,
  0x9c, 0xda, 0x35, 0x3b, 0xca, 0x42, 0xe2, 0x3a, 0xce, 0xf6, 0x23, 0x3b,
  0xab, 0x58, 0x36, 0x3b, 0x50, 0xd4, 0x29, 0x3b, 0x35, 0x8d, 0x16, 0x3b,
  0x93, 0x21, 0x31, 0x3b, 0xc6, 0xca, 0x14, 0x3b, 0x96, 0x22, 0xca, 0x3a,
  0x4e, 0x76, 0x50, 0x3b, 0x14, 0x7e, 0x2b, 0x3b, 0x83, 0xb1, 0xcf, 0x3a,
  0xce, 0xdc, 0x51, 0x3b, 0x26, 0xec, 0x38, 0x3b, 0xb2, 0x24, 0xa2, 0x39,
  0x8e, 0x58, 0x11, 0x3b, 0x32, 0xc2, 0x1e, 0x3b, 0xe9, 0xb2, 0x66, 0x3b,
  0xd7, 0x23, 0xed, 0x3a, 0x25, 0x37, 0x3b, 0x3b, 0x39, 0x02, 0x41, 0x3b,
  0x26, 0x29, 0x2f, 0x3b, 0xe7, 0xfd, 0x26, 0x3b, 0x4a, 0x46, 0x87, 0x31,
  0x30, 0xbf, 0x0e, 0x3b, 0xdc, 0x0c, 0x2b, 0x3b, 0xa5, 0xf8, 0x2e, 0x37,
  0xd6, 0xf3, 0x2e, 0x3b, 0xf3, 0xda, 0x1c, 0x3b, 0x2a, 0xa6, 0x50, 0x39,
  0x31, 0x61, 0x48, 0x3a, 0x22, 0x11, 0x0f, 0x3b, 0x6b, 0x61, 0x1d, 0x3b,
  0x3a, 0x25, 0x23, 0x3b, 0xef, 0x31, 0x63, 0x3b, 0x4e, 0x84, 0xf1, 0x39,
  0x58, 0xc9, 0x35, 0x3b, 0xda, 0x31, 0x4a, 0x3b, 0x7c, 0x87, 0x52, 0x38,
  0x74, 0xa3, 0xec, 0x3a, 0x18, 0x26, 0x19, 0x3b, 0xb2, 0xd0, 0x36, 0x3b,
  0xd2, 0xa3, 0x31, 0x3b, 0x4c, 0x08, 0x2f, 0x3b, 0x31, 0xac, 0x2d, 0x3b,
  0x98, 0xfd, 0x18, 0x3b, 0xd9, 0xd7, 0x05, 0x3b, 0x12, 0x8f, 0x2e, 0x3b,
  0x4c, 0x57, 0x30, 0x3b, 0x7e, 0x76, 0x1e, 0x3b, 0xe0, 0x8b, 0x39, 0x3b,
  0x4c, 0xf3, 0x2c, 0x3b, 0x1b, 0x09, 0xa5, 0x3a, 0x46, 0xc2, 0x1e, 0x3b,
  0x1e, 0x0c, 0x01, 0x3b, 0x20, 0xc5, 0x5d, 0x3b, 0x29, 0x98, 0x11, 0x3b,
  0x46, 0x79, 0xac, 0x39, 0x12, 0x00, 0x00, 0x00, 0x74, 0x66, 0x6c, 0x2e,
  0x70, 0x73, 0x65, 0x75, 0x64, 0x6f, 0x5f, 0x71, 0x63, 0x6f, 0x6e, 0x73,
  0x74, 0x33, 0x00, 0x00, 0x02, 0x00, 0x00, 0x00, 0x40, 0x00, 0x00, 0x00,
  0x20, 0x00, 0x00, 0x00, 0xa2, 0xfb, 0xff, 0xff, 0x00, 0x00, 0x00, 0x01,
  0x14, 0x00, 0x00, 0x00, 0x24, 0x03, 0x00, 0x00, 0x05, 0x00, 0x00, 0x00,
  0x00, 0x00, 0x00, 0x02, 0x30, 0x03, 0x00, 0x00, 0x1c, 0xfb, 0xff, 0xff,
  0x08, 0x00, 0x00, 0x00, 0x08, 0x02, 0x00, 0x00, 0x40, 0x00, 0x00, 0x00,
  0x00, 0x00, 0x00, 0x00, 0x00, 0x00, 0x00, 0x00, 0x00, 0x00, 0x00, 0x00,
  0x00, 0x00, 0x00, 0x00, 0x00, 0x00, 0x00, 0x00, 0x00, 0x00, 0x00, 0x00,
  0x00, 0x00, 0x00, 0x00, 0x00, 0x00, 0x00, 0x00, 0x00, 0x00, 0x00, 0x00,
  0x00, 0x00, 0x00, 0x00, 0x00, 0x00, 0x00, 0x00, 0x00, 0x00, 0x00, 0x00,
  0x00, 0x00, 0x00, 0x00, 0x00, 0x00, 0x00, 0x00, 0x00, 0x00, 0x00, 0x00,
  0x00, 0x00, 0x00, 0x00, 0x00, 0x00, 0x00, 0x00, 0x00, 0x00, 0x00, 0x00,
  0x00, 0x00, 0x00, 0x00, 0x00, 0x00, 0x00, 0x00, 0x00, 0x00, 0x00, 0x00,
  0x00, 0x00, 0x00, 0x00, 0x00, 0x00, 0x00, 0x00, 0x00, 0x00, 0x00, 0x00,
  0x00, 0x00, 0x00, 0x00, 0x00, 0x00, 0x00, 0x00, 0x00, 0x00, 0x00, 0x00,
  0x00, 0x00, 0x00, 0x00, 0x00, 0x00, 0x00, 0x00, 0x00, 0x00, 0x00, 0x00,
  0x00, 0x00, 0x00, 0x00, 0x00, 0x00, 0x00, 0x00, 0x00, 0x00, 0x00, 0x00,
  0x00, 0x00, 0x00, 0x00, 0x00, 0x00, 0x00, 0x00, 0x00, 0x00, 0x00, 0x00,
  0x00, 0x00, 0x00, 0x00, 0x00, 0x00, 0x00, 0x00, 0x00, 0x00, 0x00, 0x00,
  0x00, 0x00, 0x00, 0x00, 0x00, 0x00, 0x00, 0x00, 0x00, 0x00, 0x00, 0x00,
  0x00, 0x00, 0x00, 0x00, 0x00, 0x00, 0x00, 0x00, 0x00, 0x00, 0x00, 0x00,
  0x00, 0x00, 0x00, 0x00, 0x00, 0x00, 0x00, 0x00, 0x00, 0x00, 0x00, 0x00,
  0x00, 0x00, 0x00, 0x00, 0x00, 0x00, 0x00, 0x00, 0x00, 0x00, 0x00, 0x00,
  0x00, 0x00, 0x00, 0x00, 0x00, 0x00, 0x00, 0x00, 0x00, 0x00, 0x00, 0x00,
  0x00, 0x00, 0x00, 0x00, 0x00, 0x00, 0x00, 0x00, 0x00, 0x00, 0x00, 0x00,
  0x00, 0x00, 0x00, 0x00, 0x00, 0x00, 0x00, 0x00, 0x00, 0x00, 0x00, 0x00,
  0x00, 0x00, 0x00, 0x00, 0x00, 0x00, 0x00, 0x00, 0x00, 0x00, 0x00, 0x00,
  0x00, 0x00, 0x00, 0x00, 0x00, 0x00, 0x00, 0x00, 0x00, 0x00, 0x00, 0x00,
  0x00, 0x00, 0x00, 0x00, 0x00, 0x00, 0x00, 0x00, 0x00, 0x00, 0x00, 0x00,
  0x00, 0x00, 0x00, 0x00, 0x00, 0x00, 0x00, 0x00, 0x00, 0x00, 0x00, 0x00,
  0x00, 0x00, 0x00, 0x00, 0x00, 0x00, 0x00, 0x00, 0x00, 0x00, 0x00, 0x00,
  0x00, 0x00, 0x00, 0x00, 0x00, 0x00, 0x00, 0x00, 0x00, 0x00, 0x00, 0x00,
  0x00, 0x00, 0x00, 0x00, 0x00, 0x00, 0x00, 0x00, 0x00, 0x00, 0x00, 0x00,
  0x00, 0x00, 0x00, 0x00, 0x00, 0x00, 0x00, 0x00, 0x00, 0x00, 0x00, 0x00,
  0x00, 0x00, 0x00, 0x00, 0x00, 0x00, 0x00, 0x00, 0x00, 0x00, 0x00, 0x00,
  0x00, 0x00, 0x00, 0x00, 0x00, 0x00, 0x00, 0x00, 0x00, 0x00, 0x00, 0x00,
  0x00, 0x00, 0x00, 0x00, 0x00, 0x00, 0x00, 0x00, 0x00, 0x00, 0x00, 0x00,
  0x00, 0x00, 0x00, 0x00, 0x00, 0x00, 0x00, 0x00, 0x00, 0x00, 0x00, 0x00,
  0x00, 0x00, 0x00, 0x00, 0x00, 0x00, 0x00, 0x00, 0x00, 0x00, 0x00, 0x00,
  0x00, 0x00, 0x00, 0x00, 0x00, 0x00, 0x00, 0x00, 0x00, 0x00, 0x00, 0x00,
  0x00, 0x00, 0x00, 0x00, 0x00, 0x00, 0x00, 0x00, 0x00, 0x00, 0x00, 0x00,
  0x00, 0x00, 0x00, 0x00, 0x00, 0x00, 0x00, 0x00, 0x00, 0x00, 0x00, 0x00,
  0x00, 0x00, 0x00, 0x00, 0x00, 0x00, 0x00, 0x00, 0x00, 0x00, 0x00, 0x00,
  0x00, 0x00, 0x00, 0x00, 0x00, 0x00, 0x00, 0x00, 0x00, 0x00, 0x00, 0x00,
  0x00, 0x00, 0x00, 0x00, 0x00, 0x00, 0x00, 0x00, 0x00, 0x00, 0x00, 0x00,
  0x00, 0x00, 0x00, 0x00, 0x00, 0x00, 0x00, 0x00, 0x00, 0x00, 0x00, 0x00,
  0x00, 0x00, 0x00, 0x00, 0x00, 0x00, 0x00, 0x00, 0x00, 0x00, 0x00, 0x00,
  0x00, 0x00, 0x00, 0x00, 0x00, 0x00, 0x00, 0x00, 0x00, 0x00, 0x00, 0x00,
  0x00, 0x00, 0x00, 0x00, 0x00, 0x00, 0x00, 0x00, 0x40, 0x00, 0x00, 0x00,
  0xf9, 0xfb, 0x62, 0x35, 0x0d, 0x13, 0x20, 0x35, 0x9f, 0xf2, 0x53, 0x34,
  0x12, 0xc0, 0xd0, 0x37, 0x80, 0xda, 0x7c, 0x35, 0x1c, 0x13, 0x3a, 0x37,
  0x90, 0x5f, 0x6b, 0x38, 0xb1, 0x6c, 0x12, 0x38, 0xee, 0x37, 0x54, 0x38,
  0xb8, 0x02, 0x6c, 0x38, 0x54, 0xcf, 0x5b, 0x38, 0xd4, 0xdb, 0x42, 0x38,
  0xb6, 0x42, 0x65, 0x38, 0xd5, 0x94, 0x40, 0x38, 0xc4, 0xcf, 0x02, 0x38,
  0xf7, 0xe7, 0x86, 0x38, 0x65, 0xf6, 0x5d, 0x38, 0x9c, 0x68, 0x06, 0x38,
  0xf8, 0xcf, 0x87, 0x38, 0x49, 0x58, 0x6f, 0x38, 0xa5, 0xdc, 0xd1, 0x36,
  0xfa, 0x1e, 0x3c, 0x38, 0x22, 0x7b, 0x4d, 0x38, 0xee, 0x4b, 0x95, 0x38,
  0x09, 0x77, 0x19, 0x38, 0x08, 0x50, 0x72, 0x38, 0x94, 0xcf, 0x79, 0x38,
  0xd5, 0xb5, 0x62, 0x38, 0x23, 0x23, 0x58, 0x38, 0xef, 0x15, 0xaf, 0x2e,
  0xcb, 0xc1, 0x38, 0x38, 0xdb, 0x63, 0x5d, 0x38, 0x0e, 0x77, 0x62, 0x34,
  0xd5, 0x70, 0x62, 0x38, 0x7e, 0x04, 0x4b, 0x38, 0xf0, 0x06, 0x87, 0x36,
  0xf1, 0xac, 0x81, 0x37, 0xdb, 0x2b, 0x39, 0x38, 0x89, 0xb2, 0x4b, 0x38,
  0xac, 0x28, 0x53, 0x38, 0x74, 0x07, 0x93, 0x38, 0x24, 0x4c, 0x1c, 0x37,
  0x37, 0x49, 0x6b, 0x38, 0xa5, 0xd9, 0x82, 0x38, 0x6c, 0x3e, 0x88, 0x35,
  0xf3, 0x23, 0x19, 0x38, 0x64, 0x38, 0x46, 0x38, 0x12, 0x9e, 0x6c, 0x38,
  0x4a, 0xeb, 0x65, 0x38, 0x50, 0x8b, 0x62, 0x38, 0xc3, 0xc8, 0x60, 0x38,
  0xf8, 0x03, 0x46, 0x38, 0xa6, 0x3b, 0x2d, 0x38, 0x69, 0xee, 0x61, 0x38,
  0xe7, 0x3c, 0x64, 0x38, 0x27, 0x19, 0x4d, 0x38, 0x05, 0x27, 0x70, 0x38,
  0x74, 0xd9, 0x5f, 0x38, 0xf5, 0x9a, 0xd5, 0x37, 0x3c, 0x7b, 0x4d, 0x38,
  0x99, 0x06, 0x27, 0x38, 0xb0, 0x84, 0x8f, 0x38, 0x4d, 0x71, 0x3c, 0x38,
  0x84, 0x3b, 0xdf, 0x36, 0x12, 0x00, 0x00, 0x00, 0x74, 0x66, 0x6c, 0x2e,
  0x70, 0x73, 0x65, 0x75, 0x64, 0x6f, 0x5f, 0x71, 0x63, 0x6f, 0x6e, 0x73,
  0x74, 0x32, 0x00, 0x00, 0x01, 0x00, 0x00, 0x00, 0x40, 0x00, 0x00, 0x00,
  0xf2, 0xfe, 0xff, 0xff, 0x00, 0x00, 0x00, 0x01, 0x14, 0x00, 0x00, 0x00,
  0x58, 0x00, 0x00, 0x00, 0x04, 0x00, 0x00, 0x00, 0x00, 0x00, 0x00, 0x09,
  0x64, 0x00, 0x00, 0x00, 0x6c, 0xfe, 0xff, 0xff, 0x08, 0x00, 0x00, 0x00,
  0x2c, 0x00, 0x00, 0x00, 0x04, 0x00, 0x00, 0x00, 0x00, 0x00, 0x00, 0x00,
  0x00, 0x00, 0x00, 0x00, 0x00, 0x00, 0x00, 0x00, 0x00, 0x00, 0x00, 0x00,
  0x00, 0x00, 0x00, 0x00, 0x00, 0x00, 0x00, 0x00, 0x00, 0x00, 0x00, 0x00,
  0x00, 0x00, 0x00, 0x00, 0x00, 0x00, 0x00, 0x00, 0x04, 0x00, 0x00, 0x00,
  0x98, 0x76, 0x92, 0x3b, 0x32, 0x05, 0xa1, 0x3b, 0xff, 0xd2, 0x89, 0x3b,
  0xb2, 0x5d, 0xa5, 0x3b, 0x12, 0x00, 0x00, 0x00, 0x74, 0x66, 0x6c, 0x2e,
  0x70, 0x73, 0x65, 0x75, 0x64, 0x6f, 0x5f, 0x71, 0x63, 0x6f, 0x6e, 0x73,
  0x74, 0x31, 0x00, 0x00, 0x02, 0x00, 0x00, 0x00, 0x04, 0x00, 0x00, 0x00,
  0x40, 0x00, 0x00, 0x00, 0x7a, 0xff, 0xff, 0xff, 0x00, 0x00, 0x00, 0x01,
  0x14, 0x00, 0x00, 0x00, 0x58, 0x00, 0x00, 0x00, 0x03, 0x00, 0x00, 0x00,
  0x00, 0x00, 0x00, 0x02, 0x64, 0x00, 0x00, 0x00, 0xf4, 0xfe, 0xff, 0xff,
  0x08, 0x00, 0x00, 0x00, 0x2c, 0x00, 0x00, 0x00, 0x04, 0x00, 0x00, 0x00,
  0x00, 0x00, 0x00, 0x00, 0x00, 0x00, 0x00, 0x00, 0x00, 0x00, 0x00, 0x00,
  0x00, 0x00, 0x00, 0x00, 0x00, 0x00, 0x00, 0x00, 0x00, 0x00, 0x00, 0x00,
  0x00, 0x00, 0x00, 0x00, 0x00, 0x00, 0x00, 0x00, 0x00, 0x00, 0x00, 0x00,
  0x04, 0x00, 0x00, 0x00, 0x60, 0x04, 0xc2, 0x38, 0xee, 0x4c, 0xd5, 0x38,
  0xb6, 0x92, 0xb6, 0x38, 0xa3, 0x0e, 0xdb, 0x38, 0x11, 0x00, 0x00, 0x00,
  0x74, 0x66, 0x6c, 0x2e, 0x70, 0x73, 0x65, 0x75, 0x64, 0x6f, 0x5f, 0x71,
  0x63, 0x6f, 0x6e, 0x73, 0x74, 0x00, 0x00, 0x00, 0x01, 0x00, 0x00, 0x00,
  0x04, 0x00, 0x00, 0x00, 0x00, 0x00, 0x16, 0x00, 0x1c, 0x00, 0x18, 0x00,
  0x17, 0x00, 0x10, 0x00, 0x0c, 0x00, 0x08, 0x00, 0x00, 0x00, 0x00, 0x00,
  0x00, 0x00, 0x07, 0x00, 0x16, 0x00, 0x00, 0x00, 0x00, 0x00, 0x00, 0x01,
  0x18, 0x00, 0x00, 0x00, 0x18, 0x00, 0x00, 0x00, 0x02, 0x00, 0x00, 0x00,
  0x00, 0x00, 0x00, 0x02, 0x20, 0x00, 0x00, 0x00, 0x04, 0x00, 0x04, 0x00,
  0x04, 0x00, 0x00, 0x00, 0x0e, 0x00, 0x00, 0x00, 0x61, 0x72, 0x69, 0x74,
  0x68, 0x2e, 0x63, 0x6f, 0x6e, 0x73, 0x74, 0x61, 0x6e, 0x74, 0x00, 0x00,
  0x01, 0x00, 0x00, 0x00, 0x02, 0x00, 0x00, 0x00, 0x00, 0x00, 0x16, 0x00,
  0x20, 0x00, 0x1c, 0x00, 0x1b, 0x00, 0x14, 0x00, 0x10, 0x00, 0x0c, 0x00,
  0x00, 0x00, 0x00, 0x00, 0x08, 0x00, 0x07, 0x00, 0x16, 0x00, 0x00, 0x00,
  0x00, 0x00, 0x00, 0x01, 0x18, 0x00, 0x00, 0x00, 0x34, 0x00, 0x00, 0x00,
  0x54, 0x00, 0x00, 0x00, 0x01, 0x00, 0x00, 0x00, 0x00, 0x00, 0x00, 0x09,
  0x6c, 0x00, 0x00, 0x00, 0x04, 0x00, 0x00, 0x00, 0xff, 0xff, 0xff, 0xff,
  0x0d, 0x00, 0x00, 0x00, 0x7e, 0x00, 0x00, 0x00, 0x01, 0x00, 0x00, 0x00,
  0x0c, 0x00, 0x0c, 0x00, 0x00, 0x00, 0x00, 0x00, 0x08, 0x00, 0x04, 0x00,
  0x0c, 0x00, 0x00, 0x00, 0x08, 0x00, 0x00, 0x00, 0x14, 0x00, 0x00, 0x00,
  0x01, 0x00, 0x00, 0x00, 0xff, 0xff, 0xff, 0xff, 0xff, 0xff, 0xff, 0xff,
  0x00, 0x00, 0x00, 0x00, 0x01, 0x00, 0x00, 0x00, 0x09, 0x41, 0x71, 0x3d,
  0x1e, 0x00, 0x00, 0x00, 0x73, 0x65, 0x72, 0x76, 0x69, 0x6e, 0x67, 0x5f,
  0x64, 0x65, 0x66, 0x61, 0x75, 0x6c, 0x74, 0x5f, 0x6b, 0x65, 0x72, 0x61,
  0x73, 0x5f, 0x74, 0x65, 0x6e, 0x73, 0x6f, 0x72, 0x3a, 0x30, 0x00, 0x00,
  0x04, 0x00, 0x00, 0x00, 0x01, 0x00, 0x00, 0x00, 0x0d, 0x00, 0x00, 0x00,
  0x7e, 0x00, 0x00, 0x00, 0x01, 0x00, 0x00, 0x00, 0x05, 0x00, 0x00, 0x00,
  0x60, 0x00, 0x00, 0x00, 0x40, 0x00, 0x00, 0x00, 0x2c, 0x00, 0x00, 0x00,
  0x18, 0x00, 0x00, 0x00, 0x04, 0x00, 0x00, 0x00, 0xc0, 0xff, 0xff, 0xff,
  0x19, 0x00, 0x00, 0x00, 0x02, 0x00, 0x00, 0x00, 0x00, 0x00, 0x00, 0x19,
  0xd0, 0xff, 0xff, 0xff, 0x09, 0x00, 0x00, 0x00, 0x04, 0x00, 0x00, 0x00,
  0x00, 0x00, 0x00, 0x09, 0xe0, 0xff, 0xff, 0xff, 0x28, 0x00, 0x00, 0x00,
  0x02, 0x00, 0x00, 0x00, 0x00, 0x00, 0x00, 0x28, 0xf0, 0xff, 0xff, 0xff,
  0x11, 0x00, 0x00, 0x00, 0x02, 0x00, 0x00, 0x00, 0x00, 0x00, 0x00, 0x11,
  0x0c, 0x00, 0x10, 0x00, 0x0f, 0x00, 0x00, 0x00, 0x08, 0x00, 0x04, 0x00,
  0x0c, 0x00, 0x00, 0x00, 0x03, 0x00, 0x00, 0x00, 0x03, 0x00, 0x00, 0x00,
  0x00, 0x00, 0x00, 0x03
};
